{
  "version": "1.0",
  "truncation": null,
  "padding": null,
  "added_tokens": [
    {
      "id": 0,
      "content": "[UNK]",
      "single_word": false,
      "lstrip": false,
      "rstrip": false,
      "normalized": false,
      "special": true
    },
    {
      "id": 1,
      "content": "[PAD]",
      "single_word": false,
      "lstrip": false,
      "rstrip": false,
      "normalized": false,
      "special": true
    },
    {
      "id": 2,
      "content": "[BOS]",
      "single_word": false,
      "lstrip": false,
      "rstrip": false,
      "normalized": false,
      "special": true
    },
    {
      "id": 3,
      "content": "[EOS]",
      "single_word": false,
      "lstrip": false,
      "rstrip": false,
      "normalized": false,
      "special": true
    },
    {
      "id": 12000,
      "content": "<|user|>",
      "single_word": false,
      "lstrip": false,
      "rstrip": false,
      "normalized": false,
      "special": true
    },
    {
      "id": 12001,
      "content": "<|mira|>",
      "single_word": false,
      "lstrip": false,
      "rstrip": false,
      "normalized": false,
      "special": true
    },
    {
      "id": 12002,
      "content": "<|endofturn|>",
      "single_word": false,
      "lstrip": false,
      "rstrip": false,
      "normalized": false,
      "special": true
    }
  ],
  "normalizer": null,
  "pre_tokenizer": {
    "type": "ByteLevel",
    "add_prefix_space": true,
    "trim_offsets": true,
    "use_regex": true
  },
  "post_processor": null,
  "decoder": {
    "type": "ByteLevel",
    "add_prefix_space": true,
    "trim_offsets": true,
    "use_regex": true
  },
  "model": {
    "type": "BPE",
    "dropout": null,
    "unk_token": "[UNK]",
    "continuing_subword_prefix": null,
    "end_of_word_suffix": null,
    "fuse_unk": false,
    "byte_fallback": false,
    "ignore_merges": false,
    "vocab": {
      "[UNK]": 0,
      "[PAD]": 1,
      "[BOS]": 2,
      "[EOS]": 3,
      "!": 4,
      "\"": 5,
      "#": 6,
      "$": 7,
      "%": 8,
      "&": 9,
      "'": 10,
      "(": 11,
      ")": 12,
      "*": 13,
      "+": 14,
      ",": 15,
      "-": 16,
      ".": 17,
      "/": 18,
      "0": 19,
      "1": 20,
      "2": 21,
      "3": 22,
      "4": 23,
      "5": 24,
      "6": 25,
      "7": 26,
      "8": 27,
      "9": 28,
      ":": 29,
      ";": 30,
      "<": 31,
      "=": 32,
      ">": 33,
      "?": 34,
      "@": 35,
      "A": 36,
      "B": 37,
      "C": 38,
      "D": 39,
      "E": 40,
      "F": 41,
      "G": 42,
      "H": 43,
      "I": 44,
      "J": 45,
      "K": 46,
      "L": 47,
      "M": 48,
      "N": 49,
      "O": 50,
      "P": 51,
      "Q": 52,
      "R": 53,
      "S": 54,
      "T": 55,
      "U": 56,
      "V": 57,
      "W": 58,
      "X": 59,
      "Y": 60,
      "Z": 61,
      "[": 62,
      "\\": 63,
      "]": 64,
      "^": 65,
      "_": 66,
      "`": 67,
      "a": 68,
      "b": 69,
      "c": 70,
      "d": 71,
      "e": 72,
      "f": 73,
      "g": 74,
      "h": 75,
      "i": 76,
      "j": 77,
      "k": 78,
      "l": 79,
      "m": 80,
      "n": 81,
      "o": 82,
      "p": 83,
      "q": 84,
      "r": 85,
      "s": 86,
      "t": 87,
      "u": 88,
      "v": 89,
      "w": 90,
      "x": 91,
      "y": 92,
      "z": 93,
      "{": 94,
      "|": 95,
      "}": 96,
      "~": 97,
      "¡": 98,
      "¢": 99,
      "£": 100,
      "¤": 101,
      "¥": 102,
      "¦": 103,
      "§": 104,
      "¨": 105,
      "©": 106,
      "ª": 107,
      "«": 108,
      "¬": 109,
      "®": 110,
      "¯": 111,
      "°": 112,
      "±": 113,
      "²": 114,
      "³": 115,
      "´": 116,
      "µ": 117,
      "¶": 118,
      "·": 119,
      "¸": 120,
      "¹": 121,
      "º": 122,
      "»": 123,
      "¼": 124,
      "½": 125,
      "¾": 126,
      "¿": 127,
      "À": 128,
      "Á": 129,
      "Â": 130,
      "Ã": 131,
      "Ä": 132,
      "Å": 133,
      "Æ": 134,
      "Ç": 135,
      "È": 136,
      "É": 137,
      "Ê": 138,
      "Ë": 139,
      "Ì": 140,
      "Í": 141,
      "Î": 142,
      "Ï": 143,
      "Ð": 144,
      "Ñ": 145,
      "Ò": 146,
      "Ó": 147,
      "Ô": 148,
      "Õ": 149,
      "Ö": 150,
      "×": 151,
      "Ø": 152,
      "Ù": 153,
      "Ú": 154,
      "Û": 155,
      "Ü": 156,
      "Ý": 157,
      "Þ": 158,
      "ß": 159,
      "à": 160,
      "á": 161,
      "â": 162,
      "ã": 163,
      "ä": 164,
      "å": 165,
      "æ": 166,
      "ç": 167,
      "è": 168,
      "é": 169,
      "ê": 170,
      "ë": 171,
      "ì": 172,
      "í": 173,
      "î": 174,
      "ï": 175,
      "ð": 176,
      "ñ": 177,
      "ò": 178,
      "ó": 179,
      "ô": 180,
      "õ": 181,
      "ö": 182,
      "÷": 183,
      "ø": 184,
      "ù": 185,
      "ú": 186,
      "û": 187,
      "ü": 188,
      "ý": 189,
      "þ": 190,
      "ÿ": 191,
      "Ā": 192,
      "ā": 193,
      "Ă": 194,
      "ă": 195,
      "Ą": 196,
      "ą": 197,
      "Ć": 198,
      "ć": 199,
      "Ĉ": 200,
      "ĉ": 201,
      "Ċ": 202,
      "ċ": 203,
      "Č": 204,
      "č": 205,
      "Ď": 206,
      "ď": 207,
      "Đ": 208,
      "đ": 209,
      "Ē": 210,
      "ē": 211,
      "Ĕ": 212,
      "ĕ": 213,
      "Ė": 214,
      "ė": 215,
      "Ę": 216,
      "ę": 217,
      "Ě": 218,
      "ě": 219,
      "Ĝ": 220,
      "ĝ": 221,
      "Ğ": 222,
      "ğ": 223,
      "Ġ": 224,
      "ġ": 225,
      "Ģ": 226,
      "ģ": 227,
      "Ĥ": 228,
      "ĥ": 229,
      "Ħ": 230,
      "ħ": 231,
      "Ĩ": 232,
      "ĩ": 233,
      "Ī": 234,
      "ī": 235,
      "Ĭ": 236,
      "ĭ": 237,
      "Į": 238,
      "į": 239,
      "İ": 240,
      "ı": 241,
      "Ĳ": 242,
      "ĳ": 243,
      "Ĵ": 244,
      "ĵ": 245,
      "Ķ": 246,
      "ķ": 247,
      "ĸ": 248,
      "Ĺ": 249,
      "ĺ": 250,
      "Ļ": 251,
      "ļ": 252,
      "Ľ": 253,
      "ľ": 254,
      "Ŀ": 255,
      "ŀ": 256,
      "Ł": 257,
      "ł": 258,
      "Ń": 259,
      "‼": 260,
      "⁉": 261,
      "☀": 262,
      "☕": 263,
      "☝": 264,
      "☹": 265,
      "⚡": 266,
      "✅": 267,
      "✋": 268,
      "✌": 269,
      "✍": 270,
      "✨": 271,
      "❌": 272,
      "❓": 273,
      "❗": 274,
      "❣": 275,
      "❤": 276,
      "⭐": 277,
      "🌈": 278,
      "🌊": 279,
      "🌙": 280,
      "🌟": 281,
      "🌲": 282,
      "🌳": 283,
      "🌷": 284,
      "🌸": 285,
      "🌹": 286,
      "🌻": 287,
      "🌼": 288,
      "🌿": 289,
      "🍀": 290,
      "🍃": 291,
      "🍰": 292,
      "🍵": 293,
      "🍷": 294,
      "🍾": 295,
      "🎁": 296,
      "🎈": 297,
      "🎉": 298,
      "🎊": 299,
      "🎨": 300,
      "🎵": 301,
      "🎶": 302,
      "🏔": 303,
      "🏕": 304,
      "🐝": 305,
      "🐢": 306,
      "🐨": 307,
      "🐯": 308,
      "🐱": 309,
      "🐶": 310,
      "🐸": 311,
      "🐻": 312,
      "🐼": 313,
      "👆": 314,
      "👇": 315,
      "👈": 316,
      "👉": 317,
      "👋": 318,
      "👌": 319,
      "👍": 320,
      "👎": 321,
      "💓": 322,
      "💔": 323,
      "💕": 324,
      "💖": 325,
      "💗": 326,
      "💙": 327,
      "💚": 328,
      "💛": 329,
      "💜": 330,
      "💞": 331,
      "💟": 332,
      "💡": 333,
      "💪": 334,
      "💫": 335,
      "💯": 336,
      "📖": 337,
      "📚": 338,
      "🔥": 339,
      "🖋": 340,
      "🖐": 341,
      "🖖": 342,
      "🖤": 343,
      "😀": 344,
      "😁": 345,
      "😂": 346,
      "😃": 347,
      "😄": 348,
      "😅": 349,
      "😆": 350,
      "😇": 351,
      "😉": 352,
      "😊": 353,
      "😋": 354,
      "😍": 355,
      "😏": 356,
      "😐": 357,
      "😑": 358,
      "😒": 359,
      "😓": 360,
      "😔": 361,
      "😕": 362,
      "😖": 363,
      "😗": 364,
      "😘": 365,
      "😙": 366,
      "😚": 367,
      "😛": 368,
      "😜": 369,
      "😝": 370,
      "😞": 371,
      "😟": 372,
      "😠": 373,
      "😡": 374,
      "😢": 375,
      "😣": 376,
      "😤": 377,
      "😥": 378,
      "😨": 379,
      "😩": 380,
      "😪": 381,
      "😫": 382,
      "😭": 383,
      "😰": 384,
      "😱": 385,
      "😳": 386,
      "😴": 387,
      "😵": 388,
      "😶": 389,
      "🙁": 390,
      "🙂": 391,
      "🙃": 392,
      "🙄": 393,
      "🙏": 394,
      "🤍": 395,
      "🤎": 396,
      "🤔": 397,
      "🤗": 398,
      "🤘": 399,
      "🤙": 400,
      "🤚": 401,
      "🤝": 402,
      "🤞": 403,
      "🤟": 404,
      "🤣": 405,
      "🤤": 406,
      "🤥": 407,
      "🤨": 408,
      "🤩": 409,
      "🤪": 410,
      "🤫": 411,
      "🤬": 412,
      "🤭": 413,
      "🤯": 414,
      "🥂": 415,
      "🥰": 416,
      "🥵": 417,
      "🥶": 418,
      "🥺": 419,
      "🦁": 420,
      "🦉": 421,
      "🦊": 422,
      "🦋": 423,
      "🦾": 424,
      "🧡": 425,
      "es": 426,
      "en": 427,
      "Ġd": 428,
      "Ã©": 429,
      "on": 430,
      "Ġp": 431,
      "Ġc": 432,
      "qu": 433,
      "Ġl": 434,
      "Ġa": 435,
      "re": 436,
      "ou": 437,
      "Ġs": 438,
      "er": 439,
      "čĊ": 440,
      "an": 441,
      "Ġqu": 442,
      "un": 443,
      "ai": 444,
      "ti": 445,
      "te": 446,
      "Ġun": 447,
      "ent": 448,
      "Ġt": 449,
      "ĠÃ": 450,
      "Ġde": 451,
      "Ġm": 452,
      "le": 453,
      "Ġe": 454,
      "ĠÃł": 455,
      "is": 456,
      "in": 457,
      "ĠčĊ": 458,
      "or": 459,
      "Ġr": 460,
      "ar": 461,
      "Ġv": 462,
      "om": 463,
      "Ġla": 464,
      "il": 465,
      "our": 466,
      "Ġf": 467,
      "Ġj": 468,
      "est": 469,
      "se": 470,
      "ment": 471,
      "Ġune": 472,
      "oi": 473,
      "eu": 474,
      "el": 475,
      "Ġn": 476,
      "tion": 477,
      "Ġet": 478,
      "Ġg": 479,
      "Ġau": 480,
      "ra": 481,
      "si": 482,
      "end": 483,
      "Ã¨": 484,
      "pr": 485,
      "me": 486,
      "Ġb": 487,
      "Ġen": 488,
      "Ġcom": 489,
      "de": 490,
      "ur": 491,
      "ant": 492,
      "Ġ?": 493,
      "ce": 494,
      "Ġdes": 495,
      "este": 496,
      "ĠC": 497,
      "ais": 498,
      "al": 499,
      "Ġje": 500,
      "Ġpr": 501,
      "it": 502,
      "ve": 503,
      "que": 504,
      "Ġque": 505,
      "ie": 506,
      "Ġle": 507,
      "Ġqui": 508,
      "as": 509,
      "ans": 510,
      "ĠM": 511,
      "Ġdu": 512,
      "Ġpour": 513,
      "au": 514,
      "ĠÃ©": 515,
      "Ġpar": 516,
      "mp": 517,
      "and": 518,
      "ĠJ": 519,
      "Ġ!": 520,
      "Ġch": 521,
      "Ġles": 522,
      "Ġil": 523,
      "tre": 524,
      "Ġpen": 525,
      "Ġon": 526,
      "ne": 527,
      "ppr": 528,
      "ch": 529,
      "**": 530,
      "ag": 531,
      "ci": 532,
      "Ġcon": 533,
      "ouv": 534,
      "ĠE": 535,
      "ĠdÃ©": 536,
      "Ġre": 537,
      "Ġte": 538,
      "ol": 539,
      "us": 540,
      "Ġpl": 541,
      "tu": 542,
      "ous": 543,
      "res": 544,
      "Ġin": 545,
      "Ġce": 546,
      "Ġappr": 547,
      "ĠrÃ©": 548,
      "ux": 549,
      "Ġpense": 550,
      "bor": 551,
      "tÃ©": 552,
      "Ġquand": 553,
      "Ġtr": 554,
      "Ġpeu": 555,
      "Ġapprend": 556,
      "ien": 557,
      "reux": 558,
      "Ġabor": 559,
      "ation": 560,
      "Ġ;": 561,
      "Ġaborde": 562,
      "Ã©e": 563,
      "Ġex": 564,
      "ac": 565,
      "âĢ": 566,
      "Ġsu": 567,
      "ait": 568,
      "Ġreste": 569,
      "ĠJe": 570,
      "Ġgeste": 571,
      "Ġcreux": 572,
      "oir": 573,
      "Ġdans": 574,
      "ont": 575,
      "ĠO": 576,
      "Ġsur": 577,
      "Ġtu": 578,
      "Ã¨re": 579,
      "os": 580,
      "ri": 581,
      "li": 582,
      "Ġi": 583,
      "les": 584,
      "ui": 585,
      "ĠL": 586,
      "ĠP": 587,
      "aire": 588,
      "onn": 589,
      "Ãª": 590,
      "Ġest": 591,
      "ff": 592,
      "Ġpas": 593,
      "Ġh": 594,
      "vec": 595,
      "Ġcomme": 596,
      "ers": 597,
      "âĢĻ": 598,
      "ĠI": 599,
      "ter": 600,
      "ati": 601,
      "jour": 602,
      "Ġavec": 603,
      "og": 604,
      "Ġ**": 605,
      "ĠQ": 606,
      "Ġou": 607,
      "ĠQu": 608,
      "Ġo": 609,
      "elle": 610,
      "ĠU": 611,
      "iv": 612,
      "ons": 613,
      "ĠT": 614,
      "itÃ©": 615,
      "Ġse": 616,
      "RA": 617,
      "ts": 618,
      "ir": 619,
      "IRA": 620,
      "ble": 621,
      "rai": 622,
      "ĠMIRA": 623,
      "rÃ©": 624,
      "Ġplus": 625,
      "Ġpro": 626,
      "Ġ:": 627,
      "eux": 628,
      "ale": 629,
      "Ġsi": 630,
      "ĠB": 631,
      "ira": 632,
      "Ġtou": 633,
      "av": 634,
      "ille": 635,
      "cu": 636,
      "--": 637,
      "Ã§": 638,
      "ois": 639,
      "ĠIl": 640,
      "Ġme": 641,
      "ec": 642,
      "Ġy": 643,
      "Ġvrai": 644,
      "eur": 645,
      "ser": 646,
      "ĠprÃ©": 647,
      "di": 648,
      "tr": 649,
      "Ġsont": 650,
      "eau": 651,
      "ĠS": 652,
      "ssi": 653,
      "ques": 654,
      "ort": 655,
      "ĠMira": 656,
      "Ġaussi": 657,
      "ain": 658,
      "Ġcomp": 659,
      "Ã¨s": 660,
      "ap": 661,
      "Ġdi": 662,
      "ence": 663,
      "ĠEt": 664,
      "enc": 665,
      "ore": 666,
      "Ġas": 667,
      "Ġpeut": 668,
      "Ã©r": 669,
      "Ġquel": 670,
      "ĠTu": 671,
      "ran": 672,
      "Ġimp": 673,
      "Ġsans": 674,
      "at": 675,
      "Ġtra": 676,
      "ine": 677,
      "ler": 678,
      "ist": 679,
      "lle": 680,
      "Ġfa": 681,
      "ER": 682,
      "ĠD": 683,
      "SER": 684,
      "ĠUSER": 685,
      "ðŁ": 686,
      "um": 687,
      "age": 688,
      "enti": 689,
      "uis": 690,
      "im": 691,
      "fi": 692,
      "ĠOui": 693,
      "Ġfor": 694,
      "tement": 695,
      "Ãł": 696,
      "oup": 697,
      "Ġ-": 698,
      "ĠA": 699,
      "ang": 700,
      "Ã©n": 701,
      "endre": 702,
      "otre": 703,
      "Ã©t": 704,
      "Ġmon": 705,
      "op": 706,
      "Ġar": 707,
      "ĠÃª": 708,
      "che": 709,
      "ĠðŁ": 710,
      "st": 711,
      "ut": 712,
      "ance": 713,
      "iÃ¨re": 714,
      "ĠÃ§": 715,
      "ĠÃ§a": 716,
      "Ġsouv": 717,
      "Ġmais": 718,
      "ĠPar": 719,
      "ĠBon": 720,
      "Ġmo": 721,
      "Ġnous": 722,
      "Ġdis": 723,
      "ĠÃªtre": 724,
      "ouve": 725,
      "Ġsuis": 726,
      "ture": 727,
      "mps": 728,
      "Ġav": 729,
      "Ġent": 730,
      "ad": 731,
      "ess": 732,
      "ail": 733,
      "et": 734,
      "onne": 735,
      "Ġbeau": 736,
      "id": 737,
      "ul": 738,
      "une": 739,
      "bre": 740,
      "Ġces": 741,
      "Ġne": 742,
      "omm": 743,
      "tique": 744,
      "ot": 745,
      "am": 746,
      "ĠBonjour": 747,
      "ique": 748,
      "tions": 749,
      "Ã©es": 750,
      "ue": 751,
      "Ġvraiment": 752,
      "tte": 753,
      "cr": 754,
      "Ġsouvent": 755,
      "##": 756,
      "olog": 757,
      "mple": 758,
      "ela": 759,
      "Ġexp": 760,
      "Ġbien": 761,
      "ient": 762,
      "coup": 763,
      "lÃ©": 764,
      "Ġbeaucoup": 765,
      "ig": 766,
      "ĠdÃ©c": 767,
      "Ġman": 768,
      "Ġtemps": 769,
      "oin": 770,
      "able": 771,
      "Ġtoi": 772,
      "Ġvie": 773,
      "Ġnotre": 774,
      "Ġac": 775,
      "Ġph": 776,
      "ert": 777,
      "Ġrec": 778,
      "avoir": 779,
      "ĠQuel": 780,
      "Ã®": 781,
      "aux": 782,
      "ente": 783,
      "ĠEn": 784,
      "oy": 785,
      "ses": 786,
      "Ġimport": 787,
      "oc": 788,
      "Ġques": 789,
      "ĠOn": 790,
      "rer": 791,
      "sion": 792,
      "Ġfaire": 793,
      "Ġpers": 794,
      "ĠtrÃ¨s": 795,
      "Ã»": 796,
      "jours": 797,
      "ond": 798,
      "Ġam": 799,
      "Ġtoujours": 800,
      "ab": 801,
      "Ġson": 802,
      "Ġcha": 803,
      "ĠfaÃ§": 804,
      "Ġsuj": 805,
      "ations": 806,
      "ivre": 807,
      "ord": 808,
      "ĠmÃ©": 809,
      "ay": 810,
      "ologie": 811,
      "ten": 812,
      "Ġcomment": 813,
      "ces": 814,
      "esp": 815,
      "Ġsp": 816,
      "Ġvoir": 817,
      "ante": 818,
      "Ġcette": 819,
      "ĠmaniÃ¨re": 820,
      "ĠV": 821,
      "ĠintÃ©": 822,
      "ph": 823,
      "ell": 824,
      "ge": 825,
      "ĠN": 826,
      "oire": 827,
      "ard": 828,
      "Ġimportant": 829,
      "Ġses": 830,
      "tive": 831,
      "Ġvous": 832,
      "Ġgr": 833,
      "Ġcela": 834,
      "Ġ\\": 835,
      "ress": 836,
      "Ġ(": 837,
      "ĠfaÃ§on": 838,
      "ĠcrÃ©": 839,
      "Ġtout": 840,
      "ens": 841,
      "Ġcomm": 842,
      "uti": 843,
      "ĠdÃ©t": 844,
      "ĠÃ©t": 845,
      "Ġton": 846,
      "appr": 847,
      "elles": 848,
      "Ġnos": 849,
      "ĠgÃ©n": 850,
      "Ġdiff": 851,
      "per": 852,
      "aÃ®": 853,
      "Ġli": 854,
      "Ġfran": 855,
      "Ġexc": 856,
      "Ġpourr": 857,
      "ĠLa": 858,
      "ĠdÃ©couv": 859,
      "Ġper": 860,
      "Ġleur": 861,
      "Ġont": 862,
      "tt": 863,
      "actement": 864,
      "encer": 865,
      "Ġid": 866,
      "ĠlÃł": 867,
      "Ġpart": 868,
      "ction": 869,
      "urs": 870,
      "Ġquestion": 871,
      "ĠfranÃ§": 872,
      "Ã´": 873,
      "Ġtel": 874,
      "aut": 875,
      "Ġ\"": 876,
      "aine": 877,
      "raph": 878,
      "Ġfait": 879,
      "ĠdÃ©tail": 880,
      "ect": 881,
      "Ġdev": 882,
      "Ġexcell": 883,
      "Ġso": 884,
      "ĠsÃ»": 885,
      "Ġsavoir": 886,
      "lis": 887,
      "Ġsujet": 888,
      "emple": 889,
      "Ã©ri": 890,
      "par": 891,
      "ĠÃ©tÃ©": 892,
      "ĠPour": 893,
      "Ġcompr": 894,
      "Ġcal": 895,
      "Ã©s": 896,
      "Ġan": 897,
      "Ġtrans": 898,
      "ver": 899,
      "ĠintÃ©ress": 900,
      "olu": 901,
      "adore": 902,
      "insi": 903,
      "ĠÃ©m": 904,
      "alut": 905,
      "Ġti": 906,
      "Ã©g": 907,
      "Ġchaque": 908,
      "ĠSalut": 909,
      "ose": 910,
      "Ġainsi": 911,
      "atience": 912,
      "Ġexemple": 913,
      "euse": 914,
      "ĠsÃ»r": 915,
      "Ġtes": 916,
      "hÃ©": 917,
      "Ġtrav": 918,
      "oti": 919,
      "Ã©c": 920,
      "Ġob": 921,
      "Ãªtre": 922,
      "ĠLes": 923,
      "Ġparler": 924,
      "Ãªme": 925,
      "usi": 926,
      "Ġpe": 927,
      "Ġmes": 928,
      "for": 929,
      "ni": 930,
      "dien": 931,
      "ĠLe": 932,
      "Ġcr": 933,
      "tiv": 934,
      "Ãªte": 935,
      "aÃ®t": 936,
      "Ġparti": 937,
      "ĠEx": 938,
      "Ġquoti": 939,
      "Ġquotidien": 940,
      "moi": 941,
      "Ġentre": 942,
      "Ġlivre": 943,
      "ager": 944,
      "Ġser": 945,
      "istoire": 946,
      "Ġpenses": 947,
      "ents": 948,
      "Ġeff": 949,
      "ĠÃ©v": 950,
      "erci": 951,
      "mes": 952,
      "Ġma": 953,
      "Ġparf": 954,
      "raphie": 955,
      "Ġsem": 956,
      "met": 957,
      "lu": 958,
      "ments": 959,
      "omb": 960,
      "aise": 961,
      "vent": 962,
      "aime": 963,
      "sionn": 964,
      "ĠCe": 965,
      "pp": 966,
      "Ã¢": 967,
      "Ġsy": 968,
      "ants": 969,
      "iner": 970,
      "Ġsoci": 971,
      "itÃ©s": 972,
      "ĠâĢ": 973,
      "Ġtrouve": 974,
      "Ġ##": 975,
      "Ġaut": 976,
      "Ġpeux": 977,
      "atin": 978,
      "Ġpeti": 979,
      "Ġaux": 980,
      "tra": 981,
      "ial": 982,
      "itu": 983,
      "ĠrÃ©g": 984,
      "ĠR": 985,
      "ĠF": 986,
      "Ġcher": 987,
      "ĠdiffÃ©r": 988,
      "Ġal": 989,
      "Ġuti": 990,
      "Ġmom": 991,
      "Ġmoi": 992,
      "ex": 993,
      "der": 994,
      "lex": 995,
      "Ġad": 996,
      "Ġbon": 997,
      "Ġenv": 998,
      "Ġexcellente": 999,
      "erre": 1000,
      "Ġsous": 1001,
      "Ġess": 1002,
      "Ã©ci": 1003,
      "Ġprof": 1004,
      "Ġpersonn": 1005,
      "Ġdire": 1006,
      "Ġgra": 1007,
      "ĠprÃ©f": 1008,
      "oires": 1009,
      "ite": 1010,
      "Ġautre": 1011,
      "Ġpeuvent": 1012,
      "vous": 1013,
      "Ġvoi": 1014,
      "ion": 1015,
      "Ġpuis": 1016,
      "Ġprend": 1017,
      "cip": 1018,
      "Ġresp": 1019,
      "Ġpatience": 1020,
      "Ġconc": 1021,
      "oses": 1022,
      "Ġrecomm": 1023,
      "Ġatt": 1024,
      "laire": 1025,
      "Ġgrand": 1026,
      "Ġcalme": 1027,
      "ic": 1028,
      "Ġpra": 1029,
      "Ġdou": 1030,
      "ective": 1031,
      "rir": 1032,
      "ils": 1033,
      "Ġveux": 1034,
      "ommer": 1035,
      "Ġmusi": 1036,
      "ĠprÃ©c": 1037,
      "Ã©rien": 1038,
      "Ġcons": 1039,
      "uc": 1040,
      "ĠExactement": 1041,
      "Ġrev": 1042,
      "Ã©tait": 1043,
      "ĠMais": 1044,
      "tif": 1045,
      "Ġquelqu": 1046,
      "ure": 1047,
      "crÃ¨": 1048,
      "Ġjour": 1049,
      "Ġcert": 1050,
      "---": 1051,
      "Ġnommer": 1052,
      "form": 1053,
      "ĠQuels": 1054,
      "Ġchang": 1055,
      "Ġobser": 1056,
      "ombre": 1057,
      "nÃ©e": 1058,
      "Ġes": 1059,
      "Ġarti": 1060,
      "Ġchoses": 1061,
      "lo": 1062,
      "erais": 1063,
      "ographie": 1064,
      "Ġcuis": 1065,
      "Ġchose": 1066,
      "Ġphot": 1067,
      "Ġta": 1068,
      "tionn": 1069,
      "Ã¨me": 1070,
      "ĠidÃ©e": 1071,
      "ace": 1072,
      "ate": 1073,
      "Ġforme": 1074,
      "Ġcar": 1075,
      "Ġparle": 1076,
      "ouver": 1077,
      "alement": 1078,
      "Ġfeu": 1079,
      "ors": 1080,
      "Ġpartager": 1081,
      "Ã©ra": 1082,
      "ĠprÃ©cis": 1083,
      "ĠrÃ©f": 1084,
      "ĠmÃªme": 1085,
      "ĠCom": 1086,
      "Ġpoin": 1087,
      "Ġâ": 1088,
      "ieux": 1089,
      "anc": 1090,
      "Ġ---": 1091,
      "Ġfas": 1092,
      "ages": 1093,
      "ide": 1094,
      "cin": 1095,
      "Ã©v": 1096,
      "Ġpourrait": 1097,
      "orer": 1098,
      "tin": 1099,
      "Ġ|": 1100,
      "Ġmonde": 1101,
      "cuter": 1102,
      "----": 1103,
      "ĠfranÃ§aise": 1104,
      "ĠrÃ©s": 1105,
      "Ġcompte": 1106,
      "tes": 1107,
      "iter": 1108,
      "pres": 1109,
      "Ġnouv": 1110,
      "aires": 1111,
      "cher": 1112,
      "Ã¹": 1113,
      "Ġpres": 1114,
      "ĠexpÃ©rien": 1115,
      "Ġmar": 1116,
      "ĠgÃ©nial": 1117,
      "ili": 1118,
      "Ġcur": 1119,
      "Ġsol": 1120,
      "Ġelle": 1121,
      "Ġmain": 1122,
      "Ġvis": 1123,
      "Ġsemble": 1124,
      "ets": 1125,
      "ĠâĢĶ": 1126,
      "aient": 1127,
      "ĠBien": 1128,
      "Ġ1": 1129,
      "Ġtelle": 1130,
      "ĠoÃ¹": 1131,
      "ences": 1132,
      "Ġtradi": 1133,
      "Ġenc": 1134,
      "Ġobserver": 1135,
      "Ġaid": 1136,
      "osi": 1137,
      "resse": 1138,
      "agn": 1139,
      "all": 1140,
      "ales": 1141,
      "Ġsuper": 1142,
      "ĠOh": 1143,
      "Ã©rÃ©": 1144,
      "ĠSi": 1145,
      "Ġmatin": 1146,
      "sir": 1147,
      "Ġjou": 1148,
      "quer": 1149,
      "ĠÃ©mo": 1150,
      "uit": 1151,
      "Ġconn": 1152,
      "Ġquoi": 1153,
      "Ġst": 1154,
      "ouvre": 1155,
      "ong": 1156,
      "ĠMerci": 1157,
      "tude": 1158,
      "Ġtend": 1159,
      "ies": 1160,
      "ectivement": 1161,
      "Ġca": 1162,
      "Ġvais": 1163,
      "ĠÃ©g": 1164,
      "ouvÃ©": 1165,
      "Ġ###": 1166,
      "Ġplai": 1167,
      "Ġcour": 1168,
      "ĠdÃ©j": 1169,
      "Ġdit": 1170,
      "**,": 1171,
      "out": 1172,
      "Ġsa": 1173,
      "Åĵ": 1174,
      "ĠintÃ©ressant": 1175,
      "ches": 1176,
      "ĠG": 1177,
      "Ġtellement": 1178,
      "Ġlit": 1179,
      "Ġreconn": 1180,
      "iser": 1181,
      "Ġquelque": 1182,
      "estes": 1183,
      "Ġcuisine": 1184,
      "Ã¨res": 1185,
      "Ġrepar": 1186,
      "onom": 1187,
      "mar": 1188,
      "uille": 1189,
      "ĠÃ©galement": 1190,
      "Ġprop": 1191,
      "Ġforce": 1192,
      "Ġparticu": 1193,
      "des": 1194,
      "Ġplaisir": 1195,
      "Ġutilis": 1196,
      "Ġcommencer": 1197,
      "Ġrevient": 1198,
      "Ġfascin": 1199,
      "Ġcherche": 1200,
      "ing": 1201,
      "Ġconse": 1202,
      "Ġfond": 1203,
      "ĠÃ©c": 1204,
      "app": 1205,
      "iques": 1206,
      "ĠdÃ©f": 1207,
      "Ġgran": 1208,
      "Ġretr": 1209,
      "Ã©tÃ©": 1210,
      "Ġinf": 1211,
      "Ġpratique": 1212,
      "histoire": 1213,
      "Ġdiscuter": 1214,
      "Ġils": 1215,
      "ĠdÃ©jÃł": 1216,
      "Ġim": 1217,
      "Ġconv": 1218,
      "oit": 1219,
      "Ġgestes": 1220,
      "act": 1221,
      "ĠDe": 1222,
      "yp": 1223,
      "autres": 1224,
      "Ġcomprendre": 1225,
      "uite": 1226,
      "ures": 1227,
      "Ġcol": 1228,
      "Ġattenti": 1229,
      "Ġcul": 1230,
      "inst": 1231,
      "erie": 1232,
      "Ġsou": 1233,
      "Ġpos": 1234,
      "Ġfam": 1235,
      "Ġpay": 1236,
      "Ġpouv": 1237,
      "alle": 1238,
      "Ġdonn": 1239,
      "seau": 1240,
      "Ġaim": 1241,
      "Ġaider": 1242,
      "Ġdess": 1243,
      "ĠEff": 1244,
      "Ġbr": 1245,
      "Ġart": 1246,
      "Ġparticuli": 1247,
      "Ġpays": 1248,
      "Ġna": 1249,
      "esoin": 1250,
      "Ġvoy": 1251,
      "Ġeu": 1252,
      "Ġbesoin": 1253,
      "apprend": 1254,
      "ĠEffectivement": 1255,
      "ĠrÃ©p": 1256,
      "Ġtraj": 1257,
      "Ġsimple": 1258,
      "Ġtransmet": 1259,
      "ĠUne": 1260,
      "Ġvoix": 1261,
      "Ġtravail": 1262,
      "ĠComment": 1263,
      "agne": 1264,
      "ier": 1265,
      "acc": 1266,
      "ĠÃ©qu": 1267,
      "site": 1268,
      "ode": 1269,
      "suite": 1270,
      "ĠlÃ©g": 1271,
      "iseau": 1272,
      "Ġoiseau": 1273,
      "erve": 1274,
      "Ġencore": 1275,
      "faire": 1276,
      "ĠdÃ©couvrir": 1277,
      "ste": 1278,
      "iss": 1279,
      "Ġmoment": 1280,
      "Ġattentif": 1281,
      "Ġpassionn": 1282,
      "Ġinter": 1283,
      "tiques": 1284,
      "gie": 1285,
      "abor": 1286,
      "lÃ©ch": 1287,
      "cule": 1288,
      "Ġnature": 1289,
      "Ġquelques": 1290,
      "Ġhas": 1291,
      "atif": 1292,
      "lÃ¨": 1293,
      "oud": 1294,
      "Ġins": 1295,
      "Ġtendresse": 1296,
      "Ġhasard": 1297,
      "Ġretrouve": 1298,
      "Ġessay": 1299,
      "installe": 1300,
      "rais": 1301,
      "Ġpresser": 1302,
      "Ġrecommencer": 1303,
      "Ġcertain": 1304,
      "Ġsyst": 1305,
      "Ġtraject": 1306,
      "Ġnord": 1307,
      "Ġeau": 1308,
      "ĠrÃ©flÃ©ch": 1309,
      "onge": 1310,
      "Ġtrajectoires": 1311,
      "cipient": 1312,
      "Ġparfum": 1313,
      "Ġconte": 1314,
      "ĠrÃ©cipient": 1315,
      "Ġrouvre": 1316,
      "Ġvotre": 1317,
      "Ġphoto": 1318,
      "ĠreconnaÃ®t": 1319,
      "ĠrÃ©apprend": 1320,
      "Ġmainten": 1321,
      "Ġaig": 1322,
      "croy": 1323,
      "olution": 1324,
      "roir": 1325,
      "ĠspÃ©ci": 1326,
      "Ġfil": 1327,
      "Ġaiguille": 1328,
      "pus": 1329,
      "ĠðŁĮ": 1330,
      "Ġruis": 1331,
      "Ġapp": 1332,
      "Ġremar": 1333,
      "enir": 1334,
      "eurs": 1335,
      "ats": 1336,
      "aim": 1337,
      "Ġdessine": 1338,
      "Ġruisseau": 1339,
      "enne": 1340,
      "Ġvieille": 1341,
      "puscule": 1342,
      "ĠcrÃ©puscule": 1343,
      "Ġombre": 1344,
      "allonge": 1345,
      "Ġtiroir": 1346,
      "Ġver": 1347,
      "ĠQue": 1348,
      "Ġcendre": 1349,
      "ĠcouvÃ©": 1350,
      "Ġcomplex": 1351,
      "ari": 1352,
      "use": 1353,
      "Ġtech": 1354,
      "Ġfl": 1355,
      "ĠCon": 1356,
      "Ġleurs": 1357,
      "astr": 1358,
      "Ġbou": 1359,
      "ins": 1360,
      "Ġchois": 1361,
      "lig": 1362,
      "Ġoff": 1363,
      "lanc": 1364,
      "Ġcl": 1365,
      "rem": 1366,
      "sique": 1367,
      "Ġple": 1368,
      "oie": 1369,
      "Ġpourrais": 1370,
      "Ġavoir": 1371,
      "aimerais": 1372,
      "Ġsc": 1373,
      "Ġtant": 1374,
      "Ġrien": 1375,
      "ateur": 1376,
      "Ġnouvelles": 1377,
      "Ġincroy": 1378,
      "ĠthÃ©": 1379,
      "Ġdem": 1380,
      "agine": 1381,
      "art": 1382,
      "abord": 1383,
      "Ġhum": 1384,
      "Ġlum": 1385,
      "urop": 1386,
      "Ġconvers": 1387,
      "ĠAu": 1388,
      "Ġhist": 1389,
      "Ġapprendre": 1390,
      "ĠfranÃ§ais": 1391,
      "Ġtravers": 1392,
      "Ġfon": 1393,
      "Ġbonne": 1394,
      "Ġchange": 1395,
      "ĠParf": 1396,
      "ath": 1397,
      "ĠIls": 1398,
      "Ġmont": 1399,
      "Ġheu": 1400,
      "ign": 1401,
      "iste": 1402,
      "Ġor": 1403,
      "lic": 1404,
      "ĠUn": 1405,
      "Ġconfi": 1406,
      "ss": 1407,
      "Ġfer": 1408,
      "Ã©rer": 1409,
      "ĠEnsuite": 1410,
      "ĠplaÃ®t": 1411,
      "Ġpersonne": 1412,
      "exp": 1413,
      "Ġsens": 1414,
      "Ġche": 1415,
      "Ġind": 1416,
      "crÃ¨tement": 1417,
      "illeurs": 1418,
      "Ġcor": 1419,
      "erveille": 1420,
      "ĠElle": 1421,
      "Ġress": 1422,
      "ances": 1423,
      "ĠmÃ©di": 1424,
      "Ġcuri": 1425,
      "Ġcap": 1426,
      "Ġprendre": 1427,
      "Ġtyp": 1428,
      "Ġbas": 1429,
      "Ġexpl": 1430,
      "ala": 1431,
      "els": 1432,
      "Ġpol": 1433,
      "ug": 1434,
      "lles": 1435,
      "uerre": 1436,
      "Ġsais": 1437,
      "ĠFran": 1438,
      "antÃ©": 1439,
      "bles": 1440,
      "Ġinflu": 1441,
      "Ġlong": 1442,
      "Ġcontra": 1443,
      "Ġhonn": 1444,
      "Ġnon": 1445,
      "esse": 1446,
      "Ġexactement": 1447,
      "ĠsantÃ©": 1448,
      "urb": 1449,
      "Ġdir": 1450,
      "prÃ¨s": 1451,
      "sions": 1452,
      "vez": 1453,
      "Ã©li": 1454,
      "ill": 1455,
      "accord": 1456,
      "ĠhonnÃªte": 1457,
      "Ġrel": 1458,
      "Ġgrav": 1459,
      "Ġlang": 1460,
      "Ġailleurs": 1461,
      "Ġsenti": 1462,
      "ĠÃ©tait": 1463,
      "endant": 1464,
      "Ġmieux": 1465,
      "Ġfascinant": 1466,
      "ĠÃĢ": 1467,
      "Ġrest": 1468,
      "endu": 1469,
      "Ġavant": 1470,
      "ĠCela": 1471,
      "Ġmoy": 1472,
      "Ġco": 1473,
      "are": 1474,
      "ĠConcrÃ¨tement": 1475,
      "tel": 1476,
      "Ġter": 1477,
      "ĠexpÃ©rience": 1478,
      "uer": 1479,
      "uire": 1480,
      "Ã©m": 1481,
      "ĠsystÃ¨me": 1482,
      "Ġessayer": 1483,
      "abil": 1484,
      "Ġphy": 1485,
      "Ġmus": 1486,
      "Ġdont": 1487,
      "Ġincroyable": 1488,
      "urÃ©": 1489,
      "tention": 1490,
      "ĠgÃ©nÃ©ra": 1491,
      "alitÃ©": 1492,
      "ions": 1493,
      "uance": 1494,
      "entes": 1495,
      "Ġcompagn": 1496,
      "Ġfois": 1497,
      "Ġremarque": 1498,
      "Ġviv": 1499,
      "ĠNuance": 1500,
      "Ġcontraste": 1501,
      "Ġdom": 1502,
      "iens": 1503,
      "rÃ©e": 1504,
      "Ġenvie": 1505,
      "Ġpoint": 1506,
      "ĠFrance": 1507,
      "oque": 1508,
      "atique": 1509,
      "hui": 1510,
      "Ġconcent": 1511,
      "gan": 1512,
      "onomie": 1513,
      "Ġcurieuse": 1514,
      "ner": 1515,
      "**.": 1516,
      "cile": 1517,
      "nes": 1518,
      "Ġhistoire": 1519,
      "ĠIm": 1520,
      "aci": 1521,
      "iver": 1522,
      "Ġ2": 1523,
      "Ġtour": 1524,
      "Ġadm": 1525,
      "ĠlÃ©gÃ¨re": 1526,
      "..": 1527,
      "Ġag": 1528,
      "Ã©qu": 1529,
      "Ġactiv": 1530,
      "ĠH": 1531,
      "Ġdirais": 1532,
      "Ġsav": 1533,
      "Ġvivre": 1534,
      "Ġcompagnie": 1535,
      "jourd": 1536,
      "Ġmusique": 1537,
      "Ġserait": 1538,
      "fique": 1539,
      "ĠImagine": 1540,
      "truc": 1541,
      "ĠAh": 1542,
      "Ġquestions": 1543,
      "ĠsociÃ©tÃ©": 1544,
      "Ġgrande": 1545,
      "Ġdeux": 1546,
      "tout": 1547,
      "Ġcontemp": 1548,
      "Ġfaut": 1549,
      "Ġvoyage": 1550,
      "tal": 1551,
      "ilibre": 1552,
      "ĠjournÃ©e": 1553,
      "tionnelle": 1554,
      "tri": 1555,
      "Ġfr": 1556,
      "cep": 1557,
      "Ġchar": 1558,
      "Ã¨rement": 1559,
      "imp": 1560,
      "Ġcommun": 1561,
      "oil": 1562,
      "yc": 1563,
      "ables": 1564,
      "Ġconseils": 1565,
      "Ġpetite": 1566,
      "reuse": 1567,
      "isation": 1568,
      "Ã´le": 1569,
      "Ġprem": 1570,
      "antes": 1571,
      "Ġpermet": 1572,
      "Ġsujets": 1573,
      "ĠpÃ©ri": 1574,
      "ĠdÃ©b": 1575,
      "Ġpi": 1576,
      "Ġth": 1577,
      "quoi": 1578,
      "Ġgen": 1579,
      "Ġtous": 1580,
      "oph": 1581,
      "Ġmod": 1582,
      "Ġvag": 1583,
      "Ġlib": 1584,
      "Ġjus": 1585,
      "ĠÃ©p": 1586,
      "Ġret": 1587,
      "Ġprofond": 1588,
      "Ġconf": 1589,
      "Ġpu": 1590,
      "Ãªt": 1591,
      "ĠrÃ©v": 1592,
      "Ġoui": 1593,
      "Ġcalmement": 1594,
      "Ġfonction": 1595,
      "ĠdÃ©p": 1596,
      "Ġtrouver": 1597,
      "Ġali": 1598,
      "Ġrepart": 1599,
      "Ġgens": 1600,
      "Ġop": 1601,
      "Ġautres": 1602,
      "Ġsurtout": 1603,
      "Ġville": 1604,
      "Ġjeux": 1605,
      "uv": 1606,
      "ise": 1607,
      "Ġpetit": 1608,
      "Ġrespect": 1609,
      "Ġ3": 1610,
      "arder": 1611,
      "itude": 1612,
      "ivid": 1613,
      "Ġmoments": 1614,
      ").": 1615,
      "cul": 1616,
      "Ġ\\(": 1617,
      "onnement": 1618,
      "Ġconnais": 1619,
      "Ġrenc": 1620,
      "Ġaff": 1621,
      "Ġdouce": 1622,
      "Ġaujourd": 1623,
      "Ġprob": 1624,
      "uction": 1625,
      "ssage": 1626,
      "ĠaprÃ¨s": 1627,
      "esc": 1628,
      "Ã©p": 1629,
      "tures": 1630,
      "titude": 1631,
      "ov": 1632,
      "endr": 1633,
      "ends": 1634,
      "Ġnouve": 1635,
      "Ġloc": 1636,
      "Ġjoie": 1637,
      "ĩa": 1638,
      "ĠCh": 1639,
      "ourr": 1640,
      "Ġplein": 1641,
      "ĠÃĩa": 1642,
      "ĠamÃ©li": 1643,
      "astronomie": 1644,
      "Ġimpact": 1645,
      "mment": 1646,
      "Ġcer": 1647,
      "chÃ©": 1648,
      "Ġconfiance": 1649,
      "Ġmer": 1650,
      "pec": 1651,
      "formations": 1652,
      "Ġform": 1653,
      "Ġrac": 1654,
      "ues": 1655,
      "san": 1656,
      "oul": 1657,
      "Åĵuv": 1658,
      "ivers": 1659,
      "ĠpÃ©riode": 1660,
      "iration": 1661,
      "Ġpropre": 1662,
      "qui": 1663,
      "Ġculture": 1664,
      "ĠidÃ©es": 1665,
      "onc": 1666,
      "ironnement": 1667,
      "Ġder": 1668,
      "hou": 1669,
      "sÃ©": 1670,
      "Ġlors": 1671,
      "Ġconversation": 1672,
      "tiers": 1673,
      "Ġpassionnant": 1674,
      "terie": 1675,
      "Ġcrois": 1676,
      "sias": 1677,
      "bs": 1678,
      "liquer": 1679,
      "housias": 1680,
      "temps": 1681,
      "Ġfais": 1682,
      "Ġentendu": 1683,
      "Ġrou": 1684,
      "Ġconsci": 1685,
      "ĠrÃ©gion": 1686,
      "Ġvari": 1687,
      "Ġavait": 1688,
      "lement": 1689,
      "ension": 1690,
      "com": 1691,
      "Ġparfois": 1692,
      "cture": 1693,
      "od": 1694,
      "ĠvÃ©": 1695,
      "tim": 1696,
      "Ġmag": 1697,
      "Ã¨se": 1698,
      "Ġdoute": 1699,
      "urope": 1700,
      "jou": 1701,
      "Ġrapp": 1702,
      "Ġenthousias": 1703,
      "ĠdÃ©v": 1704,
      "ves": 1705,
      "Ġmontagne": 1706,
      "espÃ¨re": 1707,
      "veil": 1708,
      "Ġvient": 1709,
      "Ġphysique": 1710,
      "vol": 1711,
      "Ġ*": 1712,
      "--------": 1713,
      "Ġheureuse": 1714,
      "ï¸": 1715,
      "ĠcÃ´": 1716,
      "ï¸ı": 1717,
      "Ã©d": 1718,
      "Ġpensez": 1719,
      "Ġsimplement": 1720,
      "Ġrece": 1721,
      "Ġpoli": 1722,
      "ange": 1723,
      "Ġ=": 1724,
      "ellement": 1725,
      "tine": 1726,
      "Ġvos": 1727,
      "th": 1728,
      "Ġcomplexe": 1729,
      "prit": 1730,
      "nitÃ©": 1731,
      "Ġlim": 1732,
      "bil": 1733,
      "ĠdÃ©couvert": 1734,
      "Ġus": 1735,
      "Ġplan": 1736,
      "Ġactu": 1737,
      "ĠÃ©motion": 1738,
      "Ġcerf": 1739,
      "ĠÃ©taient": 1740,
      "Ġposi": 1741,
      "Ġhab": 1742,
      "ĠprÃ©fÃ©rÃ©": 1743,
      "Ġvite": 1744,
      "iti": 1745,
      "fiques": 1746,
      "Ġautour": 1747,
      "volant": 1748,
      "orts": 1749,
      "ĠrÃ´le": 1750,
      "Ġactive": 1751,
      "Ġavez": 1752,
      "ob": 1753,
      "ĠhÃ©": 1754,
      "Ġdevant": 1755,
      "orte": 1756,
      "Ã©tude": 1757,
      "Ġexplorer": 1758,
      "anÃ©": 1759,
      "Ġmaintenant": 1760,
      "Ġcontempor": 1761,
      "Ġtran": 1762,
      "ĠexpÃ©riences": 1763,
      "sible": 1764,
      "ĠcrÃ©atif": 1765,
      "aines": 1766,
      "Ġbles": 1767,
      "Ġenthousiasme": 1768,
      "Ġrav": 1769,
      "Ġferment": 1770,
      "aider": 1771,
      "sez": 1772,
      "Ġcli": 1773,
      "ĠrÃ©flÃ©chi": 1774,
      "ĠVous": 1775,
      "Ġsolitude": 1776,
      "intÃ©": 1777,
      "Ġdiffi": 1778,
      "Ġspont": 1779,
      "oici": 1780,
      "ividu": 1781,
      "elop": 1782,
      "Ġrepr": 1783,
      "Ġanim": 1784,
      "Ã´t": 1785,
      "assion": 1786,
      "utilis": 1787,
      "ĠParfait": 1788,
      "ĠactivitÃ©s": 1789,
      "Ġlumin": 1790,
      "ule": 1791,
      "rac": 1792,
      "Ġsociaux": 1793,
      "Ġcompassion": 1794,
      "ĠVoici": 1795,
      "Ã¢te": 1796,
      "oudre": 1797,
      "lancol": 1798,
      "ĠmÃ©lancol": 1799,
      "Ġexcellent": 1800,
      "Ġaliment": 1801,
      "Ġinqui": 1802,
      "Ġjam": 1803,
      "ombe": 1804,
      "Ġrep": 1805,
      "Ġpouvoir": 1806,
      "tifs": 1807,
      "crÃ¨te": 1808,
      "ĠdÃ©fis": 1809,
      "ĠparticuliÃ¨rement": 1810,
      "Ġtrist": 1811,
      "ĠspontanÃ©": 1812,
      "mb": 1813,
      "ĠAvec": 1814,
      "Ġclas": 1815,
      "Ġessenti": 1816,
      "tellig": 1817,
      "),": 1818,
      "Ġass": 1819,
      "Ġri": 1820,
      "raÃ®": 1821,
      "fier": 1822,
      "Ġdonner": 1823,
      "ĠcolÃ¨re": 1824,
      "Ġtristesse": 1825,
      "Ġpath": 1826,
      "Ġreg": 1827,
      "Ġpendant": 1828,
      "Ġtechn": 1829,
      "Ġsim": 1830,
      "Ã©rÃ©nitÃ©": 1831,
      "Ġbourr": 1832,
      "Ġbourrue": 1833,
      "ĠsÃ©rÃ©nitÃ©": 1834,
      "aison": 1835,
      "Ġlumineuse": 1836,
      "Ġnostal": 1837,
      "Ġgratitude": 1838,
      "Ġfilm": 1839,
      "ĠrÃ©c": 1840,
      "ĠmÃ©lancolie": 1841,
      "ĠconcentrÃ©e": 1842,
      "Ġpathos": 1843,
      "Ġchoisie": 1844,
      "ĠapprÃ©ci": 1845,
      "Ġmoder": 1846,
      "Ã©l": 1847,
      "ĠhÃ©site": 1848,
      "ĠEst": 1849,
      "Ġense": 1850,
      "erveillement": 1851,
      "Ġcontemporain": 1852,
      "Ġnostalgie": 1853,
      "Ġimpatience": 1854,
      "Ġadmiration": 1855,
      "ĠcrÃ©er": 1856,
      "Ã©volution": 1857,
      "mble": 1858,
      "ĠmÃ©diÃ©v": 1859,
      "ĠÃ©veil": 1860,
      "Ġenn": 1861,
      "Ġrecommand": 1862,
      "Ġvague": 1863,
      "ĠdÃ©velop": 1864,
      "Ġretombe": 1865,
      "Ġjamais": 1866,
      "Ġorgan": 1867,
      "nement": 1868,
      "ĠtraversÃ©e": 1869,
      "ĠpÃ¨se": 1870,
      "Ġtex": 1871,
      "Ġlongtemps": 1872,
      "Ġlut": 1873,
      "sitÃ©": 1874,
      "ram": 1875,
      "ĠÅĵuv": 1876,
      "acide": 1877,
      "Ġinc": 1878,
      "Ġprends": 1879,
      "diale": 1880,
      "ĠdiscrÃ¨te": 1881,
      "Ġcru": 1882,
      "ĠusÃ©es": 1883,
      "Ġpersonnes": 1884,
      "oix": 1885,
      "ĠmesurÃ©": 1886,
      "Ġtraditions": 1887,
      "Ġplacide": 1888,
      "Ġcomb": 1889,
      "quÃ©": 1890,
      "Ġennui": 1891,
      "aly": 1892,
      "ĠÃ©merveillement": 1893,
      "Ġblesser": 1894,
      "Ġquestionne": 1895,
      "ĠinquiÃ©tude": 1896,
      "Ġrespons": 1897,
      "onde": 1898,
      "erte": 1899,
      "aisse": 1900,
      "Ġsci": 1901,
      "oilÃł": 1902,
      "seaux": 1903,
      "Ġcertains": 1904,
      "ĠdiffÃ©rentes": 1905,
      "rique": 1906,
      "Ġcontin": 1907,
      "lier": 1908,
      "anger": 1909,
      "att": 1910,
      "ĠDÃ©": 1911,
      "Ġmusic": 1912,
      "Ġhistoires": 1913,
      "Ġbois": 1914,
      "onter": 1915,
      "Ġquelle": 1916,
      "Ġjoueuse": 1917,
      "ĠðŁĴ": 1918,
      "orÃ©": 1919,
      "til": 1920,
      "Ġavons": 1921,
      "Ġclim": 1922,
      "Ġcertaine": 1923,
      "ĠdÃ©fin": 1924,
      "ĠdÃ©li": 1925,
      "Ġrecher": 1926,
      "Ġtraditionnelle": 1927,
      "Ġreparle": 1928,
      "Ġsig": 1929,
      "tor": 1930,
      "fic": 1931,
      "yn": 1932,
      "ĠamÃ©liorer": 1933,
      "apon": 1934,
      "ains": 1935,
      "Ã©gÃ©t": 1936,
      "ĠvÃ©gÃ©t": 1937,
      "ontre": 1938,
      "hÃ©site": 1939,
      "Ġtransp": 1940,
      "Ġurb": 1941,
      "Ġunique": 1942,
      "cour": 1943,
      "rent": 1944,
      "Ġbi": 1945,
      "arer": 1946,
      "elon": 1947,
      "Ġvois": 1948,
      "idÃ©": 1949,
      "Ġimpres": 1950,
      "Ġment": 1951,
      "Ġseu": 1952,
      "Ġpub": 1953,
      "ĠmÃ©diÃ©vale": 1954,
      "bsolu": 1955,
      "Ġalors": 1956,
      "Ġ>": 1957,
      "ĠrÃ©seaux": 1958,
      "ĠdÃ©couverte": 1959,
      "Ġstruc": 1960,
      "arr": 1961,
      "truction": 1962,
      "ites": 1963,
      "ĠtÃ¢": 1964,
      "Ġappro": 1965,
      "ition": 1966,
      "acul": 1967,
      "pe": 1968,
      "ĠVoilÃł": 1969,
      "Ġamis": 1970,
      "Ġclaire": 1971,
      "Ġgenre": 1972,
      "Ġfin": 1973,
      "teur": 1974,
      "rÃ¨s": 1975,
      "Ã©tique": 1976,
      "Ġdemand": 1977,
      "Åĵur": 1978,
      "Ġpoints": 1979,
      "Ã©claire": 1980,
      "bsolument": 1981,
      "Ġmoins": 1982,
      "Ġrend": 1983,
      "Ġrester": 1984,
      "Ġlui": 1985,
      "istance": 1986,
      "Ġassez": 1987,
      "anse": 1988,
      "ĠÃ©quilibre": 1989,
      "tÃ©s": 1990,
      "Ġfamille": 1991,
      "bi": 1992,
      "Ġmi": 1993,
      "entissage": 1994,
      "rich": 1995,
      "Ġdanse": 1996,
      "Ġ+": 1997,
      "Ã¨le": 1998,
      "ĠvidÃ©": 1999,
      "mpl": 2000,
      "Ġchoix": 2001,
      "ĠdiffÃ©rents": 2002,
      "Ġmal": 2003,
      "Ġcurieux": 2004,
      "Ġpo": 2005,
      "Ġvu": 2006,
      "Ġprog": 2007,
      "Ġressenti": 2008,
      "Ġhabitu": 2009,
      "fin": 2010,
      "inaire": 2011,
      "Ġjuste": 2012,
      "niques": 2013,
      "ĠprÃ©tention": 2014,
      "illes": 2015,
      "Ġap": 2016,
      "olon": 2017,
      "ĠNous": 2018,
      "Ġdiver": 2019,
      "Ġprin": 2020,
      "uits": 2021,
      "Ã©lÃ©": 2022,
      "ĠðŁĶ": 2023,
      "aqu": 2024,
      "yth": 2025,
      "Ġat": 2026,
      "Ġquelles": 2027,
      "oÃ»": 2028,
      "ande": 2029,
      "Ġmeille": 2030,
      "asse": 2031,
      "isme": 2032,
      "mÃªme": 2033,
      "Ġcaf": 2034,
      "uler": 2035,
      "ĠsÃ©ri": 2036,
      "Ġindividu": 2037,
      "Ġdifficile": 2038,
      "ĠrÃ©pond": 2039,
      "Ġrencontre": 2040,
      "Ġliv": 2041,
      "Ġconcer": 2042,
      "aÃ®tre": 2043,
      "arde": 2044,
      "Ġquan": 2045,
      "Ġtechniques": 2046,
      "lec": 2047,
      "Ġproch": 2048,
      "ĠtÃªte": 2049,
      "Ġmat": 2050,
      "telligence": 2051,
      "alade": 2052,
      "ak": 2053,
      "usieurs": 2054,
      "Ġbonh": 2055,
      "ĠintÃ©ressante": 2056,
      "Ġurbaine": 2057,
      "Ġenrich": 2058,
      "oupe": 2059,
      "ĠaimÃ©": 2060,
      "Ġprod": 2061,
      "ynam": 2062,
      "Ġguerre": 2063,
      "Ġmet": 2064,
      "cemment": 2065,
      "cienne": 2066,
      "Ġsoi": 2067,
      "Ġhistor": 2068,
      "ĠsÃ©": 2069,
      "Ġpropres": 2070,
      "ĠrÃ©cemment": 2071,
      "ĠQuelle": 2072,
      "Ġbonheur": 2073,
      "Ġmoyen": 2074,
      "Ġlin": 2075,
      "Ġvi": 2076,
      "Ġcontre": 2077,
      "Ġconscience": 2078,
      "Ġlivres": 2079,
      "ime": 2080,
      "mique": 2081,
      "Ġsport": 2082,
      "Ġdisc": 2083,
      "Ġconnaiss": 2084,
      "Ġprom": 2085,
      "ĠrÃ©flÃ©chir": 2086,
      "Ġvue": 2087,
      "Ġmaintenir": 2088,
      "Ã©cie": 2089,
      "ĠprÃ©p": 2090,
      "Ġâľ": 2091,
      "Ġprincip": 2092,
      "Ġtrouv": 2093,
      "ĠrÃ©d": 2094,
      "Ġdonne": 2095,
      "encÃ©": 2096,
      "ori": 2097,
      "Ġlac": 2098,
      "Ġlangue": 2099,
      "pects": 2100,
      "fici": 2101,
      "ĠvÃ©lo": 2102,
      "az": 2103,
      "teurs": 2104,
      "Ġmac": 2105,
      "Ġartisan": 2106,
      "culaire": 2107,
      "Ġliber": 2108,
      "Ġcont": 2109,
      "ĠGuerre": 2110,
      "Ġtrop": 2111,
      "Ġplusieurs": 2112,
      "ĠvÃ©gÃ©tale": 2113,
      "Ġpenser": 2114,
      "Ġplace": 2115,
      "Ġlire": 2116,
      "lant": 2117,
      "Ġinformations": 2118,
      "issant": 2119,
      "Ġenvironnement": 2120,
      "arrÃªte": 2121,
      "Ġamateur": 2122,
      "Ġmyc": 2123,
      "avant": 2124,
      "Ġhabitudes": 2125,
      "Ġartisanale": 2126,
      "ĠÃ©pr": 2127,
      "Ġavis": 2128,
      "osition": 2129,
      "Ġaide": 2130,
      "Ġnouvelle": 2131,
      "ĠÃ©voque": 2132,
      "Ġgl": 2133,
      "abilitÃ©": 2134,
      "ĠgÃ©rer": 2135,
      "Ã¨ne": 2136,
      "Ã©h": 2137,
      "Ġpens": 2138,
      "cha": 2139,
      "Ġphra": 2140,
      "Ġraconter": 2141,
      "ase": 2142,
      "Ġpouvons": 2143,
      "jec": 2144,
      "lÃ©e": 2145,
      "ĠgoÃ»": 2146,
      "isterie": 2147,
      "brer": 2148,
      "IA": 2149,
      "cer": 2150,
      "air": 2151,
      "Ġaspects": 2152,
      "Ġparticulier": 2153,
      "Ġcertaines": 2154,
      "acitÃ©": 2155,
      "Ġmots": 2156,
      "ĠrÃ©gu": 2157,
      "Ġsouvenir": 2158,
      "inter": 2159,
      "ĠcafÃ©": 2160,
      "Ġprofes": 2161,
      "action": 2162,
      "Ġmondiale": 2163,
      "Ġselon": 2164,
      "Ġelles": 2165,
      "ĠNon": 2166,
      "Ġinsp": 2167,
      "\".": 2168,
      "ĠIA": 2169,
      "biance": 2170,
      "ĠtÃ¢ches": 2171,
      "{\\": 2172,
      "olontiers": 2173,
      "min": 2174,
      "Ġni": 2175,
      "Ġconne": 2176,
      "Ġlatine": 2177,
      "ith": 2178,
      "ĠÃ©prouver": 2179,
      "Ġceux": 2180,
      "Ġconst": 2181,
      "Ġraison": 2182,
      "Ġsty": 2183,
      "cons": 2184,
      "Ġperm": 2185,
      "Ġvers": 2186,
      "iers": 2187,
      "Ġaller": 2188,
      "Ġderni": 2189,
      "aide": 2190,
      "Ġnouveau": 2191,
      "stes": 2192,
      "ane": 2193,
      "Ġutiliser": 2194,
      "prim": 2195,
      "ges": 2196,
      "Ġprofessionn": 2197,
      "Ġoutil": 2198,
      "tien": 2199,
      "andonn": 2200,
      "Ġutile": 2201,
      "sibil": 2202,
      "Ġno": 2203,
      "Ġarg": 2204,
      "riÃ¨re": 2205,
      "Ġensemble": 2206,
      "ĠlibertÃ©": 2207,
      "Ġmagni": 2208,
      "Ġcomprends": 2209,
      "ĠPourquoi": 2210,
      "aitement": 2211,
      "apprentissage": 2212,
      "adre": 2213,
      "Ġexpliquer": 2214,
      "tir": 2215,
      "ole": 2216,
      "Ġfar": 2217,
      "Ġblanc": 2218,
      "rec": 2219,
      "Ġstress": 2220,
      "Ġnomb": 2221,
      "ron": 2222,
      "nements": 2223,
      "ind": 2224,
      "Ġsug": 2225,
      "Ġcoc": 2226,
      "ĠÃ©ch": 2227,
      "herie": 2228,
      "Ġlutherie": 2229,
      "Ġfou": 2230,
      "ĠvidÃ©o": 2231,
      "ĠprÃ©fÃ©r": 2232,
      "Ġplats": 2233,
      "ĠÅĵuvres": 2234,
      "iez": 2235,
      "alp": 2236,
      "ulation": 2237,
      "Ġchangements": 2238,
      "chite": 2239,
      "Ġdiscus": 2240,
      "apprÃ©cie": 2241,
      "ĠRÃ©volution": 2242,
      "Ġvoul": 2243,
      "mett": 2244,
      "ral": 2245,
      "Ġeffet": 2246,
      "Ġartifici": 2247,
      "ĠprÃ©s": 2248,
      "Ġdonc": 2249,
      "ible": 2250,
      "Ġdoit": 2251,
      "arre": 2252,
      "...": 2253,
      "ines": 2254,
      "ĠprÃ©fÃ¨res": 2255,
      "Ġsitu": 2256,
      "ĠlumiÃ¨re": 2257,
      "Ġrandonn": 2258,
      "Europe": 2259,
      "ineux": 2260,
      "alpable": 2261,
      "tives": 2262,
      "Ġomb": 2263,
      "ĠrÃ©guli": 2264,
      "Ġcadre": 2265,
      "hi": 2266,
      "Ġproj": 2267,
      "Ġrap": 2268,
      "Ġtoutes": 2269,
      "ass": 2270,
      "Ġoffre": 2271,
      "Ã©rique": 2272,
      "ĠSu": 2273,
      "lique": 2274,
      "Ġnombreux": 2275,
      "ĠÃ©b": 2276,
      "ĠðŁ§": 2277,
      "Ġanimaux": 2278,
      "eut": 2279,
      "ĠCes": 2280,
      "ĠrÃ©flex": 2281,
      "ĠmÃ©t": 2282,
      "Ġendr": 2283,
      "ĠbÃ©n": 2284,
      "ense": 2285,
      "Ġmerveille": 2286,
      "grÃ©": 2287,
      "Ġconcep": 2288,
      "ĠIn": 2289,
      "Ġbelle": 2290,
      "ĠgrÃ¨s": 2291,
      "onte": 2292,
      "ĠrÃ©soudre": 2293,
      "Ġconseil": 2294,
      "Ġdynam": 2295,
      "Ġfamil": 2296,
      "Ġcamp": 2297,
      "nous": 2298,
      "ration": 2299,
      "ugo": 2300,
      "Ã©rit": 2301,
      "ĠprÃ¨s": 2302,
      "ative": 2303,
      "je": 2304,
      "Ġvale": 2305,
      "Ġparcour": 2306,
      "tent": 2307,
      "ĠcompÃ©t": 2308,
      "ĠcomprÃ©h": 2309,
      "Ãªne": 2310,
      "escent": 2311,
      "vi": 2312,
      "Ġrecette": 2313,
      "ĠdÃ©couvertes": 2314,
      "Ãªler": 2315,
      "esprit": 2316,
      "ĠPr": 2317,
      "Ġpartie": 2318,
      "Ġeffic": 2319,
      "Ġfamilial": 2320,
      "atinÃ©": 2321,
      "oler": 2322,
      "ĠHugo": 2323,
      "Ġeffle": 2324,
      "apprendre": 2325,
      "Ġva": 2326,
      "Ġchat": 2327,
      "Ġmis": 2328,
      "Ġcent": 2329,
      "azz": 2330,
      "Ġgastronomie": 2331,
      "ĠMon": 2332,
      "Ġcis": 2333,
      "ĶĢ": 2334,
      "ĠbÃ©nÃ©": 2335,
      "Ġcisel": 2336,
      "Ġstra": 2337,
      "outer": 2338,
      "rait": 2339,
      "rav": 2340,
      "ĠVolontiers": 2341,
      "he": 2342,
      "espace": 2343,
      "chitecture": 2344,
      "esser": 2345,
      "Ġ4": 2346,
      "Ġartificielle": 2347,
      "Ġchangement": 2348,
      "Ġcaresser": 2349,
      "pression": 2350,
      "ven": 2351,
      "âĶĢ": 2352,
      "tur": 2353,
      "amment": 2354,
      "Ã©ment": 2355,
      "Ġjazz": 2356,
      "ĠspÃ©cial": 2357,
      "Ġ:**": 2358,
      "\",": 2359,
      "Ġtype": 2360,
      "Ġpermett": 2361,
      "Ġami": 2362,
      "mples": 2363,
      "Ġaimes": 2364,
      "ĠdÃ©m": 2365,
      "Ġmontre": 2366,
      "val": 2367,
      "Ġgarde": 2368,
      "Ġtail": 2369,
      "let": 2370,
      "Ġsoit": 2371,
      "ĠpremiÃ¨re": 2372,
      "Ġmotiv": 2373,
      "olÃ©": 2374,
      "Ã¨mes": 2375,
      "Ġartistes": 2376,
      "eff": 2377,
      "uropÃ©": 2378,
      "Ġk": 2379,
      "astique": 2380,
      "Ã©riment": 2381,
      "urer": 2382,
      "Ġdim": 2383,
      "import": 2384,
      "Ġcours": 2385,
      "ca": 2386,
      "Ġappris": 2387,
      "ez": 2388,
      "Ġsigni": 2389,
      "Ã¯": 2390,
      "Ġbru": 2391,
      "ĠÂ": 2392,
      "Ġmerci": 2393,
      ")**": 2394,
      "Ġair": 2395,
      "Ġmin": 2396,
      "Ġdomaine": 2397,
      "orm": 2398,
      "lÃ©ment": 2399,
      "Ġtrouves": 2400,
      "Ġinfluence": 2401,
      "Ġlu": 2402,
      "nÃ©es": 2403,
      "avantage": 2404,
      "ĠprÃ©parer": 2405,
      "oits": 2406,
      "rable": 2407,
      "Ġface": 2408,
      "Ġcoup": 2409,
      "Ġphrases": 2410,
      "ouvez": 2411,
      "Ġrecherche": 2412,
      "voir": 2413,
      "its": 2414,
      "andis": 2415,
      "Ġcog": 2416,
      "ĠcompÃ©tences": 2417,
      "ĠÃ©vÃ©": 2418,
      "atiÃ¨re": 2419,
      "Ġriche": 2420,
      "âĢĿ": 2421,
      "Ġplong": 2422,
      "lÃ¨mes": 2423,
      "aur": 2424,
      "Ġchez": 2425,
      "aque": 2426,
      "La": 2427,
      "ĠTrÃ¨s": 2428,
      "Ġvac": 2429,
      "Ġambiance": 2430,
      "ĠrandonnÃ©e": 2431,
      "env": 2432,
      "ĠÃī": 2433,
      "orter": 2434,
      "ilos": 2435,
      "ĠdonnÃ©es": 2436,
      "nent": 2437,
      "inture": 2438,
      "idÃ©e": 2439,
      "Ġvivante": 2440,
      "Ġtest": 2441,
      "autre": 2442,
      "Ġmoderne": 2443,
      "Ġravi": 2444,
      "ger": 2445,
      "Ġdr": 2446,
      "ilosoph": 2447,
      "Ġrelations": 2448,
      "ĠgÃ©": 2449,
      "ĠdÃ©but": 2450,
      "ĠconnaÃ®tre": 2451,
      "ĠAbsolument": 2452,
      "ĠrÃ©pondre": 2453,
      "onse": 2454,
      "ĠproblÃ¨mes": 2455,
      "Ġici": 2456,
      "utÃ´t": 2457,
      "ix": 2458,
      "Ġpremier": 2459,
      "intelligence": 2460,
      "Les": 2461,
      "ras": 2462,
      "dique": 2463,
      "amb": 2464,
      "Ġimpressionn": 2465,
      "ĠMoi": 2466,
      "avais": 2467,
      "alyse": 2468,
      "Ġgarder": 2469,
      "Ġrom": 2470,
      "pt": 2471,
      "Ġw": 2472,
      "ĠðŁĺ": 2473,
      "Ġgrands": 2474,
      "ĠbeautÃ©": 2475,
      "Ġphilosoph": 2476,
      "Ġnombre": 2477,
      "Ġeffets": 2478,
      "ow": 2479,
      "Ġterre": 2480,
      "arte": 2481,
      "itation": 2482,
      "ĠmodÃ¨le": 2483,
      "Ã©rie": 2484,
      "âĶĢâĶĢ": 2485,
      "ret": 2486,
      "Ġjouer": 2487,
      "Ġbord": 2488,
      "Ġpasser": 2489,
      "ortun": 2490,
      "formation": 2491,
      "ĠSuper": 2492,
      "ĠmatiÃ¨re": 2493,
      "enter": 2494,
      "ĠplutÃ´t": 2495,
      "Ġactions": 2496,
      "Ã©ner": 2497,
      "Ġsouff": 2498,
      "Ġsupp": 2499,
      "aite": 2500,
      "siques": 2501,
      "ttes": 2502,
      "Ġpartage": 2503,
      "Ġdavantage": 2504,
      "Ġpartag": 2505,
      "Ġdevais": 2506,
      "ĠdÃ©g": 2507,
      "Ġexiste": 2508,
      "ĠchangÃ©": 2509,
      "ĠcomprÃ©hension": 2510,
      "Ġfacile": 2511,
      "Ġcampagne": 2512,
      "Ġrapide": 2513,
      "rive": 2514,
      "aie": 2515,
      "Ġdirec": 2516,
      "Ġmettre": 2517,
      "Ġtermes": 2518,
      "irer": 2519,
      "Ġcas": 2520,
      "sid": 2521,
      "Ġcir": 2522,
      "ĠspÃ©cifiques": 2523,
      "bl": 2524,
      "Ġfamiliales": 2525,
      "one": 2526,
      "ĠâĨ": 2527,
      "ĠsÃ©rie": 2528,
      "Ġchoisir": 2529,
      "Ġinspir": 2530,
      "Ã©nergie": 2531,
      "ire": 2532,
      "ĠmÃ©m": 2533,
      "Ġquotidienne": 2534,
      "Ġboug": 2535,
      "Ġpolitiques": 2536,
      "tiÃ¨re": 2537,
      "oupes": 2538,
      "ĠexpÃ©riment": 2539,
      "ĠdÃ©couvre": 2540,
      "Ã©an": 2541,
      "ĠðŁ¤": 2542,
      "Ġcet": 2543,
      "ĠDans": 2544,
      "Ġclassique": 2545,
      "Ġperd": 2546,
      "cieux": 2547,
      "Ġpourquoi": 2548,
      "âĢ¦": 2549,
      "ĠLaisse": 2550,
      "Ġcruci": 2551,
      "quent": 2552,
      "omme": 2553,
      "ock": 2554,
      "Ġryth": 2555,
      "umÃ©": 2556,
      "Ã©tu": 2557,
      "Ġfant": 2558,
      "ĠforÃªt": 2559,
      "ĠdÃ©finition": 2560,
      "Ġrendre": 2561,
      "ĠmÃ©d": 2562,
      "ĠnÃ©g": 2563,
      "Ġvoud": 2564,
      "Ġnive": 2565,
      "Ġ5": 2566,
      "ĠrÃ©duire": 2567,
      "ann": 2568,
      "ult": 2569,
      "Ġ19": 2570,
      "Ġstyle": 2571,
      "ĠW": 2572,
      "univers": 2573,
      "hait": 2574,
      "ĠDÃ©fin": 2575,
      "ĠParis": 2576,
      "Ġfilms": 2577,
      "ĠcÃ´tÃ©": 2578,
      "ĠcapacitÃ©": 2579,
      "Ġvoulais": 2580,
      "lications": 2581,
      "ĠElles": 2582,
      "pect": 2583,
      "ĠeuropÃ©": 2584,
      "ĠadorÃ©": 2585,
      "Ġimportante": 2586,
      "Ġlog": 2587,
      "Ġmaison": 2588,
      "ĠAs": 2589,
      "Ġvies": 2590,
      "Ġtrain": 2591,
      "ris": 2592,
      "essus": 2593,
      "uve": 2594,
      "Ġmagnifique": 2595,
      "ib": 2596,
      "Ġeng": 2597,
      "Ġvisiter": 2598,
      "ĠðŁĳ": 2599,
      "ĠdÃ©cis": 2600,
      "oule": 2601,
      "uide": 2602,
      "ocÃ©an": 2603,
      "uses": 2604,
      "Ġpropos": 2605,
      "Ġsaveurs": 2606,
      "ps": 2607,
      "inÃ©": 2608,
      "ĠgÃ©nÃ©ral": 2609,
      "Ġvacances": 2610,
      "Ġfut": 2611,
      "ĠâĨĴ": 2612,
      "Ġmentale": 2613,
      "gue": 2614,
      "activ": 2615,
      "Ġmari": 2616,
      "Ġcheval": 2617,
      "opie": 2618,
      "imes": 2619,
      "ĠÃ©tu": 2620,
      "onnÃ©": 2621,
      "Ġcomplexes": 2622,
      "ĠpassÃ©": 2623,
      "raient": 2624,
      "Ġcertainement": 2625,
      "Ġbase": 2626,
      "ĠchÃ¢te": 2627,
      "Ã©quilibre": 2628,
      "Ġstructure": 2629,
      "anique": 2630,
      "och": 2631,
      "ĠvÃ©rit": 2632,
      "cup": 2633,
      "Ġcontex": 2634,
      "amour": 2635,
      "ĠFl": 2636,
      "Ġrelation": 2637,
      "ĠÃ©motions": 2638,
      "ĠDÃ©finis": 2639,
      "Ġpriv": 2640,
      "uster": 2641,
      "raphique": 2642,
      "vre": 2643,
      "Ġclimat": 2644,
      "ll": 2645,
      "Ġnouveaux": 2646,
      "ĠChaque": 2647,
      "ĠâĢľ": 2648,
      "her": 2649,
      "Ġposer": 2650,
      "ym": 2651,
      "ĠcÅĵur": 2652,
      "Ġpleine": 2653,
      "Ġpolitique": 2654,
      "Ġtransports": 2655,
      "ĠÃ©tr": 2656,
      "ĠrÃ©gimes": 2657,
      "ĠDonne": 2658,
      "tice": 2659,
      "ĠdiversitÃ©": 2660,
      "ĠdÃ©pend": 2661,
      "ĠdÃ©fi": 2662,
      "Ġdynamique": 2663,
      "Ġren": 2664,
      "ĠrÃ©al": 2665,
      "ĠscÃ¨ne": 2666,
      "architecture": 2667,
      "osc": 2668,
      "ĠgÃ©nÃ©ralement": 2669,
      "Ġnar": 2670,
      "Ã©co": 2671,
      "pective": 2672,
      "ĠscÃ©n": 2673,
      "Ġvoudrais": 2674,
      "tÃ©ri": 2675,
      "otenti": 2676,
      "ĠcommencÃ©": 2677,
      "ĠParfois": 2678,
      "Ġmeilleure": 2679,
      "Ġbus": 2680,
      "Ġsour": 2681,
      "ĠðŁį": 2682,
      "Ġ\\)": 2683,
      "importance": 2684,
      "tiles": 2685,
      "Ġpossible": 2686,
      "ĠresponsabilitÃ©": 2687,
      "Ġconsid": 2688,
      "cite": 2689,
      "Ġobjec": 2690,
      "Ġprofiter": 2691,
      "Ġefficace": 2692,
      "casion": 2693,
      "tenir": 2694,
      "Ġpor": 2695,
      "Ġmaj": 2696,
      "Ġavantages": 2697,
      "Ġtouch": 2698,
      "ictor": 2699,
      "ĠclÃ©": 2700,
      "Ġlecture": 2701,
      "ĠRac": 2702,
      "Ġarb": 2703,
      "Ġrapport": 2704,
      "ĠÃ©l": 2705,
      "Ġpasse": 2706,
      "oci": 2707,
      "construction": 2708,
      "Ġimportants": 2709,
      "ĠRaconte": 2710,
      "Ġjeu": 2711,
      "Ġlieu": 2712,
      "lang": 2713,
      "vain": 2714,
      "ĠvÃ©ritable": 2715,
      "Ġcrue": 2716,
      "Ġpuiss": 2717,
      "itiÃ©": 2718,
      "Ġfan": 2719,
      "Ġchans": 2720,
      "ĠQuelles": 2721,
      "trib": 2722,
      "entique": 2723,
      "\\)": 2724,
      "Ġdirection": 2725,
      "dies": 2726,
      "impact": 2727,
      "Ġnot": 2728,
      "Ġsau": 2729,
      "Ġessentiel": 2730,
      "onnant": 2731,
      "Ġplani": 2732,
      "Ġfal": 2733,
      "ĠVictor": 2734,
      "Ġetc": 2735,
      "Ġchanger": 2736,
      "tionnel": 2737,
      "Ġoutils": 2738,
      "Ġcontrib": 2739,
      "Ġtranqu": 2740,
      "orielle": 2741,
      "Ġ####": 2742,
      "jouter": 2743,
      "Ġfantastique": 2744,
      "euses": 2745,
      "escalade": 2746,
      "Ġparl": 2747,
      "ĠðŁĵ": 2748,
      "ĠrÃ©ponse": 2749,
      "ĠthÃ©Ã¢": 2750,
      "ĠplongÃ©e": 2751,
      "Ġther": 2752,
      "Ġviens": 2753,
      "Ġbut": 2754,
      "ette": 2755,
      "Ã©ch": 2756,
      "oyen": 2757,
      "Ġsavou": 2758,
      "ĠcÃ´tiÃ¨re": 2759,
      "Ġpersonnelle": 2760,
      "Ġregard": 2761,
      "Ġeux": 2762,
      "atis": 2763,
      "Ġcrucial": 2764,
      "Ġpop": 2765,
      "Ġmil": 2766,
      "Ġoffrent": 2767,
      "Ġalimentaires": 2768,
      "telle": 2769,
      "Ġpaysage": 2770,
      "Ġperspective": 2771,
      "Ġplat": 2772,
      "igne": 2773,
      "ĠannÃ©es": 2774,
      "Ġvision": 2775,
      "anisme": 2776,
      "ĠdiffÃ©rence": 2777,
      "Ġchats": 2778,
      "ĠÃ©vÃ©nements": 2779,
      "actions": 2780,
      "ocÃ©anographie": 2781,
      "tiens": 2782,
      "la": 2783,
      "Ġconfl": 2784,
      "ĠÃ©couter": 2785,
      "Ġphilosophie": 2786,
      "aph": 2787,
      "Ġopp": 2788,
      "Ġapproche": 2789,
      "Ġinst": 2790,
      "ĠthÃ©Ã¢tre": 2791,
      "Ãī": 2792,
      "Ġfont": 2793,
      "Ġscol": 2794,
      "gn": 2795,
      "ĠdÃ©veloppe": 2796,
      "octur": 2797,
      "Ġnoctur": 2798,
      "atives": 2799,
      "Ġnoire": 2800,
      "ĠBonne": 2801,
      "Ġmoyenne": 2802,
      "onique": 2803,
      "ĠQuand": 2804,
      "hÃ©ral": 2805,
      "ĠmusÃ©e": 2806,
      "hÃ©raldique": 2807,
      "ze": 2808,
      "Ġancienne": 2809,
      "mploi": 2810,
      "expl": 2811,
      "sier": 2812,
      "Ġproc": 2813,
      "bert": 2814,
      "oga": 2815,
      ".**": 2816,
      "organ": 2817,
      "oile": 2818,
      "Ġnocturne": 2819,
      "Ġpotenti": 2820,
      "Ġvaleurs": 2821,
      "Ġpau": 2822,
      "Ġboule": 2823,
      "Ġrencont": 2824,
      "ĠSec": 2825,
      "ilib": 2826,
      "adap": 2827,
      "Ġvivants": 2828,
      "Ġfav": 2829,
      "ication": 2830,
      "Ġquantique": 2831,
      "odes": 2832,
      "Ã©b": 2833,
      "exposition": 2834,
      "îĪ": 2835,
      "Ġfac": 2836,
      "Ġacc": 2837,
      "Ġrespec": 2838,
      "Ġchant": 2839,
      "Ġpris": 2840,
      "Ġcontr": 2841,
      "ĠtrouvÃ©": 2842,
      "ommes": 2843,
      "Ġavanc": 2844,
      "Ġenf": 2845,
      "olutions": 2846,
      "ingle": 2847,
      "ĠEurope": 2848,
      "Ġaborder": 2849,
      "ouche": 2850,
      "ombres": 2851,
      "Ġchau": 2852,
      "nelle": 2853,
      "astroph": 2854,
      "puis": 2855,
      "Ġsciences": 2856,
      "Ġloin": 2857,
      "ĠPeux": 2858,
      "Ġniveau": 2859,
      "frac": 2860,
      "Ġouv": 2861,
      "estion": 2862,
      "Ġjapon": 2863,
      "onnette": 2864,
      "Ġprati": 2865,
      "ueux": 2866,
      "ĠmÃ©dic": 2867,
      "Ġtringle": 2868,
      "ĠParle": 2869,
      "Ġsituation": 2870,
      "Ġmarionnette": 2871,
      "Ġpouvez": 2872,
      "Ġtoute": 2873,
      "Ġsentiment": 2874,
      "lage": 2875,
      "Ġressour": 2876,
      "ĠðŁ§ł": 2877,
      "Ġmign": 2878,
      "ior": 2879,
      "Ġdomes": 2880,
      "Ġyoga": 2881,
      "Ġindividuelle": 2882,
      "Ġpass": 2883,
      "Ġchevaliers": 2884,
      "em": 2885,
      "Ġcart": 2886,
      "ramÃ©": 2887,
      "ĠmacramÃ©": 2888,
      "be": 2889,
      "gÃ¨re": 2890,
      "Ġfi": 2891,
      "hÃ©m": 2892,
      "user": 2893,
      "Ġsensorielle": 2894,
      "ĠdÃ©tails": 2895,
      "Ġesprit": 2896,
      "00": 2897,
      "rag": 2898,
      "entre": 2899,
      "tÃ©e": 2900,
      "iles": 2901,
      "Ġbasque": 2902,
      "ĠÃ©ner": 2903,
      "ĠDis": 2904,
      "Ġnum": 2905,
      "dÃ©": 2906,
      "Ġtextiles": 2907,
      "Ġnoir": 2908,
      "Ġenvis": 2909,
      "orÃ©e": 2910,
      "ĠintÃ©ressantes": 2911,
      "Ġmicr": 2912,
      "ĠSeconde": 2913,
      "orn": 2914,
      "Ã¨g": 2915,
      "Ġrecyc": 2916,
      "Ġsentiments": 2917,
      "aculture": 2918,
      "culture": 2919,
      "Ġpermaculture": 2920,
      "Ġdomestique": 2921,
      "Ġfalaise": 2922,
      "cris": 2923,
      "isÃ©": 2924,
      "Ġsoin": 2925,
      "Ġmy": 2926,
      "Ġgrandes": 2927,
      "bli": 2928,
      "Ġdemande": 2929,
      "ĠprÃ©fÃ©rÃ©s": 2930,
      "tres": 2931,
      "Ġsen": 2932,
      "ĠthÃ©or": 2933,
      "Ġcharcuter": 2934,
      "Ġtraction": 2935,
      "ĠpÃ©d": 2936,
      "onnes": 2937,
      "Ġseulement": 2938,
      "ĠgoÃ»ter": 2939,
      "Ġdesign": 2940,
      "Ġantique": 2941,
      "Ġadap": 2942,
      "Ġboulang": 2943,
      "haites": 2944,
      "oine": 2945,
      "Ã¨ge": 2946,
      "Ġclimatologie": 2947,
      "Ġhistoriques": 2948,
      "Ġboulangerie": 2949,
      "Ġbot": 2950,
      "ĠÃ©conom": 2951,
      "aculaire": 2952,
      "ĠdÃ©pl": 2953,
      "OM": 2954,
      "Ġcorps": 2955,
      "Ġgenres": 2956,
      "Ġcelle": 2957,
      "ĠDes": 2958,
      "ologiques": 2959,
      "ĠstratÃ©": 2960,
      "Ġinten": 2961,
      "ĠentraÃ®": 2962,
      "oration": 2963,
      "Ġteinture": 2964,
      "Ġravie": 2965,
      "Ġsurpr": 2966,
      "ĠvariÃ©tÃ©": 2967,
      "aponie": 2968,
      "aquaponie": 2969,
      "Ġproduits": 2970,
      "Ġmen": 2971,
      "acrÃ©": 2972,
      "ĠÃ©quilib": 2973,
      "Ġlangues": 2974,
      "aille": 2975,
      "inf": 2976,
      "Ġsols": 2977,
      "ĠexpÃ©rimentale": 2978,
      "Ġdiscussion": 2979,
      "Ġpermettent": 2980,
      "ĠintÃ©ressants": 2981,
      "mi": 2982,
      "Ġsentir": 2983,
      "Ġopportun": 2984,
      "ĠrÃ©sult": 2985,
      "Ġmignon": 2986,
      "ĠrÃ©el": 2987,
      "Ġcommunication": 2988,
      "Ġcartographie": 2989,
      "Ġlevain": 2990,
      "ayak": 2991,
      "Ġfamili": 2992,
      "orhi": 2993,
      "Ġmycorhi": 2994,
      "Ġmycorhize": 2995,
      "otographie": 2996,
      "Ġendroit": 2997,
      "Ġfermentation": 2998,
      "astrophotographie": 2999,
      "alog": 3000,
      "Ġchim": 3001,
      "Ġreli": 3002,
      "ĠsÃ©m": 3003,
      "ĠfaÃ§ons": 3004,
      "Ġcuire": 3005,
      "ĠsystÃ¨mes": 3006,
      "eure": 3007,
      "tenant": 3008,
      "Ġserais": 3009,
      "tig": 3010,
      "nov": 3011,
      "mentaire": 3012,
      "cheur": 3013,
      "Ġinatt": 3014,
      "Ġligne": 3015,
      "Ġpublic": 3016,
      "Ġlactique": 3017,
      "Ġgravure": 3018,
      "ĠdÃ©guster": 3019,
      "Ġprior": 3020,
      "ĠMoyen": 3021,
      "Ġâľħ": 3022,
      "Ġkayak": 3023,
      "ousse": 3024,
      "ĠspÃ©lÃ©": 3025,
      "urbanisme": 3026,
      "ĠmÃ©th": 3027,
      "ĠspÃ©lÃ©ologie": 3028,
      "Ġra": 3029,
      "ries": 3030,
      "Ġconnaissances": 3031,
      "Ġprojet": 3032,
      "ĠprÃ©par": 3033,
      "Ġimportantes": 3034,
      "Ġjum": 3035,
      "Ġsugges": 3036,
      "mbre": 3037,
      "umes": 3038,
      "comp": 3039,
      "Ġjumelles": 3040,
      "omp": 3041,
      "Ġplu": 3042,
      "Ġsole": 3043,
      "ithologie": 3044,
      "ornithologie": 3045,
      "lÃ¨me": 3046,
      "rions": 3047,
      "trage": 3048,
      "ĠpiÃ©t": 3049,
      "Ġcharcuterie": 3050,
      "by": 3051,
      "Ġsch": 3052,
      "aubert": 3053,
      "Ġguit": 3054,
      "Ġchac": 3055,
      "Ġsoleil": 3056,
      "Ġphotographie": 3057,
      "ĠrÃ©vÃ©l": 3058,
      "Ġbotanique": 3059,
      "Ġcode": 3060,
      "Ġmanger": 3061,
      "ĠprÃª": 3062,
      "boristerie": 3063,
      "ĠapnÃ©e": 3064,
      "ĠMi": 3065,
      "onses": 3066,
      "herboristerie": 3067,
      "ucation": 3068,
      "ĠFlaubert": 3069,
      "ĠmÃ©diter": 3070,
      "ĠpensÃ©": 3071,
      "Ġdemander": 3072,
      "ĠpiÃ©ton": 3073,
      "ince": 3074,
      "Ġscolaire": 3075,
      "arelle": 3076,
      "Ġble": 3077,
      "Ġchamp": 3078,
      "aquarelle": 3079,
      "ax": 3080,
      "pendant": 3081,
      "ĠOu": 3082,
      "aiss": 3083,
      "ĠPeut": 3084,
      "essaie": 3085,
      "ĠmusÃ©": 3086,
      "ĠtournÃ©e": 3087,
      "ensions": 3088,
      "ĠNap": 3089,
      "Ġorig": 3090,
      "hÃ©r": 3091,
      "dier": 3092,
      "Ġly": 3093,
      "Ġpossibil": 3094,
      "Ġlaine": 3095,
      "estre": 3096,
      "Ġsociales": 3097,
      "ĠmathÃ©m": 3098,
      "ouer": 3099,
      "Ġthermique": 3100,
      "ĠCert": 3101,
      "hum": 3102,
      "Ġbonnes": 3103,
      "Ã¨te": 3104,
      "Ġtravailler": 3105,
      "Ġdendr": 3106,
      "fication": 3107,
      "ronologie": 3108,
      "ĠmusÃ©ographie": 3109,
      "Ġsec": 3110,
      "rain": 3111,
      "Ġguitare": 3112,
      "api": 3113,
      "Ġfeutrage": 3114,
      "Ġflam": 3115,
      "environnement": 3116,
      "Ġcontexte": 3117,
      "temp": 3118,
      "Ġtor": 3119,
      "Ġemp": 3120,
      "ochronologie": 3121,
      "Ġdendrochronologie": 3122,
      "archÃ©": 3123,
      "Ġhumain": 3124,
      "ĠprofondÃ©ment": 3125,
      "Ġ0": 3126,
      "Ġgrec": 3127,
      "enco": 3128,
      "ĠExp": 3129,
      "fie": 3130,
      "Ġpit": 3131,
      "Ġcondi": 3132,
      "ĠÃ©volu": 3133,
      "graphie": 3134,
      "endrÃ©": 3135,
      "Ġimm": 3136,
      "ĠrÃ©gionale": 3137,
      "ĠprÃ©fÃ¨re": 3138,
      "ĠsÃ©rigraphie": 3139,
      "iologie": 3140,
      "entÃ©": 3141,
      "impression": 3142,
      "anÃ©e": 3143,
      "informations": 3144,
      "apiculture": 3145,
      "cevoir": 3146,
      "ĠÃ©viter": 3147,
      "ĠagrÃ©": 3148,
      "Ġproven": 3149,
      "cent": 3150,
      "Ã©tais": 3151,
      "ĠchÃ¢teaux": 3152,
      "ĠÃ©d": 3153,
      "oyant": 3154,
      "Ġtisan": 3155,
      "Ã©cess": 3156,
      "Ġpetits": 3157,
      "Ġassoci": 3158,
      "ixe": 3159,
      "Ġcirque": 3160,
      "Ġorganiser": 3161,
      "Ġmusicologie": 3162,
      "Ġiniti": 3163,
      "archÃ©ologie": 3164,
      "Ġai": 3165,
      "Ġconnec": 3166,
      "ortement": 3167,
      "ĠnÃ©cess": 3168,
      "ĠÃ©trang": 3169,
      "ĠÃ©tap": 3170,
      "outÃ©": 3171,
      "Ġprol": 3172,
      "Ġosier": 3173,
      "Ġpittor": 3174,
      "sser": 3175,
      "Ġcord": 3176,
      "----------------": 3177,
      "Ġfavor": 3178,
      "ĠsÃ©miologie": 3179,
      "Ġflamenco": 3180,
      "Ġpittores": 3181,
      "bois": 3182,
      "Ġvann": 3183,
      "Ġvannerie": 3184,
      "cide": 3185,
      "Ġplomb": 3186,
      "Ġprocessus": 3187,
      "Ġpointe": 3188,
      "OOM": 3189,
      "Ġpai": 3190,
      "Ġcherch": 3191,
      "Ġhistorique": 3192,
      "Ġâĺ": 3193,
      "quis": 3194,
      "Ġaqu": 3195,
      "Ġsure": 3196,
      "ZOOM": 3197,
      "Ġvraie": 3198,
      "lod": 3199,
      "Ġvisu": 3200,
      "ĠrÃ©ponses": 3201,
      "champ": 3202,
      "Ġsimples": 3203,
      "Ġtissage": 3204,
      "dimentaire": 3205,
      "istes": 3206,
      "Ġlibre": 3207,
      "Ġpoterie": 3208,
      "ensi": 3209,
      "Ġtypographie": 3210,
      "Ġrecettes": 3211,
      "prov": 3212,
      "Ġcallig": 3213,
      "Ġaffec": 3214,
      "Ġmicrosc": 3215,
      "Ġgrecque": 3216,
      "Ġbiom": 3217,
      "ĠgÃ©ologie": 3218,
      "Ġcalligraphie": 3219,
      "Ġstim": 3220,
      "Ġclimatique": 3221,
      "Ġroman": 3222,
      "Ġjaponais": 3223,
      "Ġdepuis": 3224,
      "Ġcultures": 3225,
      "Ġsit": 3226,
      "Ġvoile": 3227,
      "ĠlÃ©gumes": 3228,
      "Ġcand": 3229,
      "Ġtransform": 3230,
      "ppe": 3231,
      "ĠsÃ©dimentaire": 3232,
      "Ġmouve": 3233,
      "ĠMain": 3234,
      "Ġchercher": 3235,
      "Ġhumaine": 3236,
      "ographique": 3237,
      "ĠliÃ©e": 3238,
      "Ġpartir": 3239,
      "Ġalp": 3240,
      "trÃ©": 3241,
      "Ġmodi": 3242,
      "ĠbutÃ´": 3243,
      "ĠdÃ©veloppement": 3244,
      "math": 3245,
      "inc": 3246,
      "Ġintri": 3247,
      "ĠqualitÃ©": 3248,
      "ĠnÃ©": 3249,
      "part": 3250,
      "iche": 3251,
      "ĠprÃ©v": 3252,
      "Ã©tym": 3253,
      "Ġbruit": 3254,
      "Ã©tymologie": 3255,
      "ĠY": 3256,
      "arti": 3257,
      "ĠsupplÃ©ment": 3258,
      "arge": 3259,
      "Ġparap": 3260,
      "Ġmycologie": 3261,
      "Ġlyrique": 3262,
      "ĠtÃ©n": 3263,
      "ĠAl": 3264,
      "Ġvern": 3265,
      "ĠÃ©poque": 3266,
      "ĠCependant": 3267,
      "Ġlimites": 3268,
      "Ġglaci": 3269,
      "olent": 3270,
      "Ã©nisterie": 3271,
      "Ġprofonde": 3272,
      "ĠdÃ©bat": 3273,
      "Ġchatoyant": 3274,
      "Ã©bÃ©nisterie": 3275,
      "Ġbiomim": 3276,
      "rerie": 3277,
      "Ġdois": 3278,
      "Ġrug": 3279,
      "ĠlittÃ©": 3280,
      "Ġsub": 3281,
      "ĠdiffÃ©rent": 3282,
      "Ġargentique": 3283,
      "Ġvernaculaire": 3284,
      "ĠbiomimÃ©tique": 3285,
      "Ġmot": 3286,
      "Ġconstr": 3287,
      "Ġverrerie": 3288,
      "ĠsoufflÃ©e": 3289,
      "Ġtisanerie": 3290,
      "ourn": 3291,
      "Ġcau": 3292,
      "ok": 3293,
      "Ġpeau": 3294,
      "Ġparapente": 3295,
      "ino": 3296,
      "Ġfrac": 3297,
      "Ġsouvenirs": 3298,
      "Ġreliure": 3299,
      "Ġerre": 3300,
      "Ġheureux": 3301,
      "ĠsÃ©ries": 3302,
      "ĠcÃ©l": 3303,
      "ologies": 3304,
      "Ġterme": 3305,
      "oute": 3306,
      "Ġspect": 3307,
      "ĠprovenÃ§": 3308,
      "ĠMaintenant": 3309,
      "occasion": 3310,
      "Ġencour": 3311,
      "ĠdÃ©velopper": 3312,
      "Ġtransport": 3313,
      "ĠchÅĵur": 3314,
      "intÃ©resse": 3315,
      "atifs": 3316,
      "Ã¨che": 3317,
      "Ġadmirer": 3318,
      "pre": 3319,
      "Ġz": 3320,
      "Ġfrais": 3321,
      "osse": 3322,
      "rire": 3323,
      "loquent": 3324,
      "ologique": 3325,
      "cle": 3326,
      "ĠproblÃ¨me": 3327,
      "ĠRÃ©s": 3328,
      "Ġalpine": 3329,
      "ograv": 3330,
      "ĠMIRAZOOM": 3331,
      "Ġlinograv": 3332,
      "Ġconnex": 3333,
      "ĠprÃ©fÃ©rences": 3334,
      "Ġlinogravure": 3335,
      "Ġpourraient": 3336,
      "Ġnaturel": 3337,
      "Ġmess": 3338,
      "Ġprofessionnelle": 3339,
      "ĠtÃ©nu": 3340,
      "ptice": 3341,
      "Ġpic": 3342,
      "ĠÃ©loquent": 3343,
      "Ġsubre": 3344,
      "Ġlangage": 3345,
      "ĠscÃ©nographie": 3346,
      "Ġmicroscopie": 3347,
      "Ġglaciologie": 3348,
      "Ġsubreptice": 3349,
      "Ġgestion": 3350,
      "Ġintemp": 3351,
      "oter": 3352,
      "seur": 3353,
      "Ġtang": 3354,
      "Ġphysiques": 3355,
      "Ġaquatique": 3356,
      "oder": 3357,
      "ied": 3358,
      "ateurs": 3359,
      "Ġsor": 3360,
      "Ġlatent": 3361,
      "ĠcouronnÃ©": 3362,
      "Ġcoqu": 3363,
      "ĠprÃªt": 3364,
      "Ġattention": 3365,
      "Ġfort": 3366,
      "Ġaspect": 3367,
      "cru": 3368,
      "ĠeuropÃ©enne": 3369,
      "Ġmul": 3370,
      "Ġpetites": 3371,
      "once": 3372,
      "irique": 3373,
      "pot": 3374,
      "Ġaime": 3375,
      "oirÃ©": 3376,
      "rug": 3377,
      "gent": 3378,
      "ĠPourrais": 3379,
      "Ġpalpable": 3380,
      "Ġvit": 3381,
      "ĠprovenÃ§ale": 3382,
      "Ġ/": 3383,
      "Ġprolixe": 3384,
      "ĠmoirÃ©": 3385,
      "Ġfarouche": 3386,
      "ðŁĮ": 3387,
      "Ġfluide": 3388,
      "estif": 3389,
      "Ġoc": 3390,
      "ĠactivitÃ©": 3391,
      "Ġrose": 3392,
      "adrÃ©": 3393,
      "ellule": 3394,
      "ĠciselÃ©": 3395,
      "inaires": 3396,
      "Ã©en": 3397,
      "tuit": 3398,
      "Ġsept": 3399,
      "Ġporc": 3400,
      "Ġchance": 3401,
      "Ġtypes": 3402,
      "information": 3403,
      "Ġenjou": 3404,
      "onnaire": 3405,
      "Ġrugueux": 3406,
      "fran": 3407,
      "ip": 3408,
      "Ġsobre": 3409,
      "Ġrepas": 3410,
      "Ġpittoresque": 3411,
      "Ġtorche": 3412,
      "Ġsittelle": 3413,
      "Ġtorchepot": 3414,
      "Ġpassion": 3415,
      "ĠenjouÃ©": 3416,
      "ellÃ©": 3417,
      "Ġquels": 3418,
      "ĠmÃ©moire": 3419,
      "Ġintempestif": 3420,
      "sement": 3421,
      "Ġonirique": 3422,
      "lir": 3423,
      "Ġlimp": 3424,
      "provisation": 3425,
      "ĠrÃ©alitÃ©": 3426,
      "tÃ©laire": 3427,
      "ĠtutÃ©laire": 3428,
      "Ġcomportement": 3429,
      "ĠrÃ©flexion": 3430,
      "ambre": 3431,
      "ĠmÃ©l": 3432,
      "Ġindolent": 3433,
      "Ġregarder": 3434,
      "Ġlimpide": 3435,
      "inge": 3436,
      "ĠÃ©motionnelle": 3437,
      "Ġpaysages": 3438,
      "Ġvertig": 3439,
      "Ġconcerne": 3440,
      "cinelle": 3441,
      "Ġcoccinelle": 3442,
      "ĠagrÃ©able": 3443,
      "ĠsÃ¨che": 3444,
      "Ġimag": 3445,
      "Ġferrug": 3446,
      "Ã©mo": 3447,
      "Ġferrugineux": 3448,
      "Ġ[": 3449,
      "Ġpince": 3450,
      "ĠdÃ©n": 3451,
      "ĠdÃ©prim": 3452,
      "Ġtangible": 3453,
      "Ġginge": 3454,
      "ĠpÃ©dologie": 3455,
      "Ġgingembre": 3456,
      "Ġsiby": 3457,
      "essay": 3458,
      "Ġservi": 3459,
      "llin": 3460,
      "Ġsibyllin": 3461,
      "Ġsoutien": 3462,
      "Ġmij": 3463,
      "ĠvÃ©loce": 3464,
      "Ġpied": 3465,
      "Ġcot": 3466,
      "agit": 3467,
      "ĠintÃ©ressÃ©": 3468,
      "lectr": 3469,
      "ĠbÃ©nÃ©fique": 3470,
      "Ġhu": 3471,
      "lv": 3472,
      "improvisation": 3473,
      "Ġconfit": 3474,
      "Ġlocale": 3475,
      "Ġliminaire": 3476,
      "Ġpinceau": 3477,
      "Ġinop": 3478,
      "ĠrÃ©sistance": 3479,
      "ĠreprÃ©s": 3480,
      "ĠmadrÃ©": 3481,
      "Ġaub": 3482,
      "ĠapprÃ©cier": 3483,
      "Ġarbit": 3484,
      "ĠinopinÃ©": 3485,
      "Ġpastel": 3486,
      "dients": 3487,
      "appelle": 3488,
      "atiques": 3489,
      "gris": 3490,
      "Ġlever": 3491,
      "oiles": 3492,
      "Ġprochaine": 3493,
      "Ġpal": 3494,
      "ĠnacrÃ©": 3495,
      "Ġpourpre": 3496,
      "Ġchambre": 3497,
      "Ġref": 3498,
      "Ġdiaph": 3499,
      "Ġdiaphane": 3500,
      "Ġloupe": 3501,
      "Ġvap": 3502,
      "ĠingrÃ©": 3503,
      "Ġconcert": 3504,
      "Ġalimentation": 3505,
      "Ġenrichiss": 3506,
      "Ġcocasse": 3507,
      "Ġmerveilleux": 3508,
      "Ġlap": 3509,
      "ĠhÃªtre": 3510,
      "Ġinsou": 3511,
      "ĠdÃ©liÃ©": 3512,
      "Ġplanifier": 3513,
      "ones": 3514,
      "Ġtacite": 3515,
      "Ġbur": 3516,
      "Ġgranite": 3517,
      "Ġvertigineux": 3518,
      "Ġbino": 3519,
      "serv": 3520,
      "Ġobjectifs": 3521,
      "Ġbinoculaire": 3522,
      "Ġbol": 3523,
      "Ġsafran": 3524,
      "issable": 3525,
      "Ġsureau": 3526,
      "Ġpratiques": 3527,
      "alisation": 3528,
      "alescent": 3529,
      "Ġoffrir": 3530,
      "Ġopalescent": 3531,
      "ĠeffleurÃ©": 3532,
      "Ġample": 3533,
      "Ġconverser": 3534,
      "Ġjours": 3535,
      "Ġdoucement": 3536,
      "ĠombellÃ©": 3537,
      "ĠrÃ©vÃ©lateur": 3538,
      "idaire": 3539,
      "ĠconsÃ©qu": 3540,
      "ĠgravÃ©": 3541,
      "Ġcra": 3542,
      "Ġâľ¨": 3543,
      "ĠchimÃ©rique": 3544,
      "voile": 3545,
      "ĠtanÃ©e": 3546,
      "onneux": 3547,
      "Ġimpalpable": 3548,
      "Ġvel": 3549,
      "ĠprÃªle": 3550,
      "Ġinsouci": 3551,
      "Ġrum": 3552,
      "ĠflÃ¢": 3553,
      "Ġcotonneux": 3554,
      "face": 3555,
      "tern": 3556,
      "Ġmusicienne": 3557,
      "Ġbrosse": 3558,
      "Ġscienti": 3559,
      "omologie": 3560,
      "ĠfumÃ©": 3561,
      "ĠchÃªne": 3562,
      "enaire": 3563,
      "ĠcendrÃ©": 3564,
      "airies": 3565,
      "Ġombrag": 3566,
      "Ġbusard": 3567,
      "ĠdÃ©primÃ©e": 3568,
      "Ġprairies": 3569,
      "Ġchacun": 3570,
      "Ġinsouciant": 3571,
      "Ġgrive": 3572,
      "aisissable": 3573,
      "Ġchan": 3574,
      "istants": 3575,
      "Ġinsaisissable": 3576,
      "expÃ©rien": 3577,
      "quois": 3578,
      "Ġmodernes": 3579,
      "Ġsavourer": 3580,
      "Ġombrageux": 3581,
      "entomologie": 3582,
      "ĠÃ©lu": 3583,
      "Ġlibellule": 3584,
      "ĠbordÃ©e": 3585,
      "Ġpolir": 3586,
      "Ã©pine": 3587,
      "Ġcontinuer": 3588,
      "ĠflÃ¢ner": 3589,
      "ĠâĿ": 3590,
      "Ġprogram": 3591,
      "Ġpeauf": 3592,
      "ĠaubÃ©pine": 3593,
      "ercer": 3594,
      "chen": 3595,
      "ciÃ©e": 3596,
      "uleux": 3597,
      "Ġcentenaire": 3598,
      "Ġpeaufiner": 3599,
      "Ġpoud": 3600,
      "ĠpÃ©tu": 3601,
      "Ġlaisse": 3602,
      "Ã¨les": 3603,
      "Ġclair": 3604,
      "Ġcharb": 3605,
      "Ġpubescent": 3606,
      "ĠpÃ©tulant": 3607,
      "ĠdorÃ©e": 3608,
      "Ġsoie": 3609,
      "tex": 3610,
      "utin": 3611,
      "Ġguille": 3612,
      "ĠÃ©lÃ©": 3613,
      "Ġfortuit": 3614,
      "The": 3615,
      "ĠmÃ©s": 3616,
      "Ġmatcha": 3617,
      "eiche": 3618,
      "Ġesp": 3619,
      "ĠfasciÃ©e": 3620,
      "ĠÃ©peiche": 3621,
      "Ġhuppe": 3622,
      "Ġburin": 3623,
      "ĠsatinÃ©": 3624,
      "estÃ©e": 3625,
      "Ġgraveur": 3626,
      "Ġmiso": 3627,
      "Ġpoudreux": 3628,
      "Ġguilleret": 3629,
      "Ġluc": 3630,
      "onniÃ¨re": 3631,
      "ĠfeutrÃ©": 3632,
      "ĠMous": 3633,
      "ĠPas": 3634,
      "Ġcrissant": 3635,
      "Ġaimerais": 3636,
      "Ġ,": 3637,
      "Ãªcheur": 3638,
      "ĠDÃ©cris": 3639,
      "adon": 3640,
      "ĠcorÃ©en": 3641,
      "ĠveloutÃ©": 3642,
      "Ġcri": 3643,
      "tis": 3644,
      "In": 3645,
      "ises": 3646,
      "Ġronce": 3647,
      "Ġcordage": 3648,
      "Ġchanvre": 3649,
      "Ġlucane": 3650,
      "quant": 3651,
      "ĠÃ©rable": 3652,
      "aces": 3653,
      "ĠprÃ©h": 3654,
      "Ġmartin": 3655,
      "aku": 3656,
      "ĠdÃ©mÃªler": 3657,
      "Ġruminer": 3658,
      "Ġjarre": 3659,
      "aucher": 3660,
      "Ġoculaire": 3661,
      "Ġdisp": 3662,
      "lucide": 3663,
      "Ġsycom": 3664,
      "Ġbougon": 3665,
      "Ġsycomore": 3666,
      "pÃªcheur": 3667,
      "rant": 3668,
      "Ġapporter": 3669,
      "Ġrencontrer": 3670,
      "lne": 3671,
      "Ġlais": 3672,
      "ĠlestÃ©e": 3673,
      "Ġquille": 3674,
      "Ġaulne": 3675,
      "Ġensuite": 3676,
      "Ġfoisonnant": 3677,
      "Ġglutin": 3678,
      "ĠfougÃ¨re": 3679,
      "ĠcharbonniÃ¨re": 3680,
      "ĠmÃ©sange": 3681,
      "Ġglutineux": 3682,
      "vitÃ©": 3683,
      "octer": 3684,
      "Ġfiler": 3685,
      "oulÃ©es": 3686,
      "Ġcruche": 3687,
      "ĠlinolÃ©": 3688,
      "ĠÂ»": 3689,
      "ĠcÃ©ladon": 3690,
      "lvestre": 3691,
      "ĠlinolÃ©um": 3692,
      "Ġbient": 3693,
      "ĠfaÃ¯": 3694,
      "ĠMoustiers": 3695,
      "ĠfaÃ¯ence": 3696,
      "Ġraku": 3697,
      "Ġhor": 3698,
      "Ġtisser": 3699,
      "Ġbleue": 3700,
      "alte": 3701,
      "ĠintÃ©g": 3702,
      "Ġsylvestre": 3703,
      "Ġnarquois": 3704,
      "Ġmijoter": 3705,
      "ĠrÃª": 3706,
      "Ġneig": 3707,
      "ensile": 3708,
      "Ġlapidaire": 3709,
      "ĠprÃ©hensile": 3710,
      "ĠbientÃ´t": 3711,
      "Ġpiquer": 3712,
      "Ġdistin": 3713,
      "ercice": 3714,
      "Ġcogiter": 3715,
      "mu": 3716,
      "Ġbarre": 3717,
      "Ġsuivre": 3718,
      "cubrer": 3719,
      "Ġmusarder": 3720,
      "Ġaffiner": 3721,
      "ĠÃ©lucubrer": 3722,
      "gu": 3723,
      "Ġpertin": 3724,
      "caire": 3725,
      "raie": 3726,
      "Ġproches": 3727,
      "loch": 3728,
      "wan": 3729,
      "Ġnombreuses": 3730,
      "ĠMilet": 3731,
      "ĠpatinÃ©": 3732,
      "Ġmousse": 3733,
      "Ġlichen": 3734,
      "Ġcontempler": 3735,
      "illier": 3736,
      "Ġentendre": 3737,
      "Ġcalcaire": 3738,
      "Ġcolonnaire": 3739,
      "Ġbasalte": 3740,
      "Ġbouleau": 3741,
      "Ġtranslucide": 3742,
      "Ġtam": 3743,
      "Ġgranuleux": 3744,
      "Ġparcourir": 3745,
      "Ġcoquillier": 3746,
      "oreux": 3747,
      "Ġlois": 3748,
      "Ġard": 3749,
      "Ġtille": 3750,
      "Ġfruits": 3751,
      "ĠargentÃ©": 3752,
      "ĠÃ©baucher": 3753,
      "Ġparcours": 3754,
      "Ġrenfor": 3755,
      "ĠrÃ©sultats": 3756,
      "Ġvaporeux": 3757,
      "Ġbercer": 3758,
      "ĠÃ©van": 3759,
      "Ġcandide": 3760,
      "Ġtilleul": 3761,
      "sibles": 3762,
      "ĠcomplÃ¨": 3763,
      "onder": 3764,
      "remiÃ¨re": 3765,
      "ĠÃ©vanescent": 3766,
      "rÃ©chÃ©": 3767,
      "Ġsouviens": 3768,
      "Ġchawan": 3769,
      "Ġdeviner": 3770,
      "Ġpersonnages": 3771,
      "ĠÃ©brÃ©chÃ©": 3772,
      "pl": 3773,
      "idemment": 3774,
      "ositÃ©": 3775,
      "Ã©ducation": 3776,
      "Ġrythmique": 3777,
      "Ġcing": 3778,
      "dic": 3779,
      "ĠdÃ©cocter": 3780,
      "Ġmariner": 3781,
      "Ġagr": 3782,
      "ĠÃĤ": 3783,
      "Ġgib": 3784,
      "Ġcuve": 3785,
      "Ġcingler": 3786,
      "yte": 3787,
      "Ġcoudre": 3788,
      "Ġ\\[": 3789,
      "Ġvilles": 3790,
      "aller": 3791,
      "resp": 3792,
      "Ġentra": 3793,
      "Ġtrog": 3794,
      "oiselle": 3795,
      "Ġpersonnel": 3796,
      "lodyte": 3797,
      "ĠÃĤge": 3798,
      "Ġtroglodyte": 3799,
      "ĠgiboulÃ©es": 3800,
      "Ġ\\]": 3801,
      "iture": 3802,
      "Ġdemoiselle": 3803,
      "ĠfermentÃ©": 3804,
      "Ġtamari": 3805,
      "Ġvia": 3806,
      "ĠcÃ©t": 3807,
      "oth": 3808,
      "Ġphotographique": 3809,
      "fÃ¨ge": 3810,
      "Ġvas": 3811,
      "ĠsolfÃ¨ge": 3812,
      "Ġbesoins": 3813,
      "ĠpartagÃ©": 3814,
      "chiner": 3815,
      "ĠcÃ©toine": 3816,
      "ĠdÃ©amb": 3817,
      "andisseur": 3818,
      "Ġcrachiner": 3819,
      "Ġagrandisseur": 3820,
      "Ġcloch": 3821,
      "Ġvisite": 3822,
      "Ġeffraie": 3823,
      "Ã©rables": 3824,
      "Ġinfuser": 3825,
      "Ġdevrais": 3826,
      "Ġroue": 3827,
      "ĠgrÃªler": 3828,
      "Ġclochers": 3829,
      "ĠrÃ¨g": 3830,
      "ĠfrÃªne": 3831,
      "abonder": 3832,
      "Ġvagabonder": 3833,
      "ĠrÃ©volution": 3834,
      "Ġarbitrer": 3835,
      "ĠÃ©videmment": 3836,
      "ĠdÃ©ambuler": 3837,
      "lob": 3838,
      "Ġsilex": 3839,
      "percevoir": 3840,
      "ĠtaillÃ©": 3841,
      "ament": 3842,
      "Ġmala": 3843,
      "Ġbroder": 3844,
      "Ġconfire": 3845,
      "Ġconseiller": 3846,
      "Ġbruiner": 3847,
      "Ġlec": 3848,
      "Ġmaladies": 3849,
      "ĠPremiÃ¨re": 3850,
      "Ġtechnologies": 3851,
      "Ġdemandais": 3852,
      "Ġeffleurer": 3853,
      "}}": 3854,
      "Ġautant": 3855,
      "ĠpensÃ©es": 3856,
      "ach": 3857,
      "Ġsoupes": 3858,
      "Le": 3859,
      "Ġmotivation": 3860,
      "Ġentrapercevoir": 3861,
      "Ġsemaine": 3862,
      "Ġpalper": 3863,
      "Ġsuc": 3864,
      "primer": 3865,
      "_{\\": 3866,
      "rÃªt": 3867,
      "Ġprofondeur": 3868,
      "trait": 3869,
      "Ġfermenter": 3870,
      "joler": 3871,
      "penter": 3872,
      "lef": 3873,
      "Ġcajoler": 3874,
      "Ġroutine": 3875,
      "Ġarpenter": 3876,
      "ĠdiffÃ©rente": 3877,
      "Ġsoupeser": 3878,
      "oisier": 3879,
      "ĠpÃ©t": 3880,
      "aguer": 3881,
      "Ġutiles": 3882,
      "ĠdÃ©nouer": 3883,
      "Ġpala": 3884,
      "Ġenti": 3885,
      "Ġdeviser": 3886,
      "Ġtechnologie": 3887,
      "Ġfariner": 3888,
      "ĠÃ©laguer": 3889,
      "Ġschiste": 3890,
      "Ġardoisier": 3891,
      "Ġpalabrer": 3892,
      "etter": 3893,
      "abiller": 3894,
      "Ġfonte": 3895,
      "rÃ©s": 3896,
      "ĠthÃ©iÃ¨re": 3897,
      "ocons": 3898,
      "ĠmacÃ©rer": 3899,
      "Ġpoi": 3900,
      "Ġhumer": 3901,
      "Ġrepriser": 3902,
      "ulaire": 3903,
      "ĠðŁĮŁ": 3904,
      "Ġdivers": 3905,
      "cruter": 3906,
      "Ġbabiller": 3907,
      "Ġsymp": 3908,
      "ĠrÃ©gions": 3909,
      "Ġpositif": 3910,
      "Ġconstruction": 3911,
      "ĠthÃ¨me": 3912,
      "Ġsignific": 3913,
      "Ġflocons": 3914,
      "Ġneur": 3915,
      "Ġesquis": 3916,
      "Ġscruter": 3917,
      "ĠrÃ©gime": 3918,
      "Ġ194": 3919,
      "Ġneiger": 3920,
      "aritÃ©": 3921,
      "Ġamus": 3922,
      "Ġtrancher": 3923,
      "Ġsimul": 3924,
      "imagine": 3925,
      "Ġpromen": 3926,
      "Ġlis": 3927,
      "itant": 3928,
      "Ġobserv": 3929,
      "ĠinfluencÃ©": 3930,
      "Ġfouetter": 3931,
      "text": 3932,
      "ĠpÃ©trir": 3933,
      "Ġesquisser": 3934,
      "Ġsimulation": 3935,
      "ĠapprÃ©ciÃ©": 3936,
      "Ġtailler": 3937,
      "ĠintÃ©ri": 3938,
      "Ġgrandement": 3939,
      "Ġlaconique": 3940,
      "Ã©lÃ¨": 3941,
      "Ġmode": 3942,
      "Ġsertir": 3943,
      "Ġpersonnelles": 3944,
      "ame": 3945,
      "Ã¨de": 3946,
      "Ġsommes": 3947,
      "ĠrÃ©guliÃ¨re": 3948,
      "agnes": 3949,
      "Ġglob": 3950,
      "Ġressources": 3951,
      "Ġcit": 3952,
      "amÃ©li": 3953,
      "ĠingrÃ©dients": 3954,
      "Ġrock": 3955,
      "Ġfign": 3956,
      "aser": 3957,
      "ienne": 3958,
      "Ġconcepts": 3959,
      "Ġfignoler": 3960,
      "Ġlien": 3961,
      "Ġsoir": 3962,
      "Ġjaser": 3963,
      "alitÃ©s": 3964,
      "Ġmoyens": 3965,
      "bilitÃ©": 3966,
      "Ġsource": 3967,
      "Ġsociale": 3968,
      "Ġfondament": 3969,
      "Ġtraitement": 3970,
      "Ġdialog": 3971,
      "Ã©cur": 3972,
      "Ġpeur": 3973,
      "Ġbalade": 3974,
      "ĠnÃ©ces": 3975,
      "ĠrÃ©ellement": 3976,
      "Ġciseler": 3977,
      "Ġdomaines": 3978,
      "ĠÃ©mouv": 3979,
      "pectives": 3980,
      "Ġdiscussions": 3981,
      "gment": 3982,
      "ĠSou": 3983,
      "¤ï¸ı": 3984,
      "Ġversion": 3985,
      "sive": 3986,
      "ade": 3987,
      "ĠÃ©tat": 3988,
      "Ġsil": 3989,
      "ĠÃ©quations": 3990,
      "Ġenfants": 3991,
      "gor": 3992,
      "Ġpositifs": 3993,
      "Ġdimension": 3994,
      "Ġsocial": 3995,
      "abilitÃ©s": 3996,
      "Ġabsolument": 3997,
      "elui": 3998,
      "Ġrelax": 3999,
      "Ġconflits": 4000,
      "ĠconsÃ©quences": 4001,
      "Ġnorm": 4002,
      "Ġmilit": 4003,
      "cd": 4004,
      "ds": 4005,
      "ĠMis": 4006,
      "oles": 4007,
      "Ġnotamment": 4008,
      "influ": 4009,
      "ĠdÃ©ter": 4010,
      "aparte": 4011,
      "Ġchansons": 4012,
      "erg": 4013,
      "ĠparlÃ©": 4014,
      "Ġfonctionne": 4015,
      "Ġval": 4016,
      "Ġlocales": 4017,
      "Ġdernier": 4018,
      "Ġbat": 4019,
      "Ġouvre": 4020,
      "ĠBonaparte": 4021,
      "Ġdiscu": 4022,
      "ĠprÃ©sent": 4023,
      "Ġdur": 4024,
      "utiliser": 4025,
      "Ġlogique": 4026,
      "Ġsuiv": 4027,
      "isÃ©e": 4028,
      "olutionn": 4029,
      "ĠTout": 4030,
      "ric": 4031,
      "activitÃ©s": 4032,
      "ĠmÃ©lange": 4033,
      "enons": 4034,
      "Ġmanque": 4035,
      "Ġformid": 4036,
      "ĠMisÃ©rables": 4037,
      "Ġwe": 4038,
      "Ġrare": 4039,
      "Ġinfluencer": 4040,
      "Ġaliments": 4041,
      "Ġperspectives": 4042,
      "ĠmarquÃ©": 4043,
      "ĠsupplÃ©mentaires": 4044,
      "ĠlittÃ©ra": 4045,
      "ĠdÃ©part": 4046,
      "cue": 4047,
      "Ġconnexion": 4048,
      "Ġartiste": 4049,
      "Ġchef": 4050,
      "ĠExplique": 4051,
      "Ġgroupe": 4052,
      "blier": 4053,
      "ĠÃ©toiles": 4054,
      "Ġdroits": 4055,
      "crit": 4056,
      "Ġcelui": 4057,
      "Ġcoule": 4058,
      "Ġformidable": 4059,
      "vis": 4060,
      "Ġforts": 4061,
      "Ġtradition": 4062,
      "Ġculinaires": 4063,
      "Ġhumains": 4064,
      "ellent": 4065,
      "Ġnom": 4066,
      "Ã»te": 4067,
      "ĠdiffÃ©rences": 4068,
      "ancer": 4069,
      "explorer": 4070,
      "Ġimpac": 4071,
      "tionnels": 4072,
      "Ġactuellement": 4073,
      "Ġrapidement": 4074,
      "ĠprogrÃ¨s": 4075,
      "Ġidenti": 4076,
      "ĠnumÃ©rique": 4077,
      "ĠopportunitÃ©s": 4078,
      "Ġcuisiner": 4079,
      "Ġassist": 4080,
      "ĠrÃ©flexions": 4081,
      "Ġintr": 4082,
      "Ġchauff": 4083,
      "ĠdÃ©cisions": 4084,
      "cal": 4085,
      "Ġunivers": 4086,
      "Ġsymb": 4087,
      "Ġapporte": 4088,
      "ĠrÃ©volutionn": 4089,
      "Ġendroits": 4090,
      "Ġcogni": 4091,
      "ĠcÃ©lÃ¨": 4092,
      "riv": 4093,
      "utilisation": 4094,
      "Ġtandis": 4095,
      "ativitÃ©": 4096,
      "lication": 4097,
      "intÃ©g": 4098,
      "Ġconcerts": 4099,
      "Ġparles": 4100,
      "ĠnÃ©cessaire": 4101,
      "occup": 4102,
      "Ġsolutions": 4103,
      "Ġtexture": 4104,
      "Ġpage": 4105,
      "Ġcommence": 4106,
      "ĠÃ©lÃ©ments": 4107,
      "illÃ©e": 4108,
      "ud": 4109,
      "Ã©lis": 4110,
      "ĠAvez": 4111,
      "adapter": 4112,
      "pri": 4113,
      "ablement": 4114,
      "Ġrappel": 4115,
      "Ġfine": 4116,
      "Ġlocaux": 4117,
      "nant": 4118,
      "server": 4119,
      "cles": 4120,
      "Ġamour": 4121,
      "ĠprivÃ©e": 4122,
      "Ġsatis": 4123,
      "ĠdÃ©licieux": 4124,
      "arm": 4125,
      "Ġartis": 4126,
      "ĠremarquÃ©": 4127,
      "ĠrÃ©us": 4128,
      "Ġcapable": 4129,
      "Ġouvert": 4130,
      "tant": 4131,
      "ĠhÃ¢te": 4132,
      "ĠidÃ©": 4133,
      "ĠjouÃ©": 4134,
      "Ġliste": 4135,
      "Ġanaly": 4136,
      "Ġ\\(\\": 4137,
      "aurais": 4138,
      "Ġtable": 4139,
      "Ġavais": 4140,
      "formes": 4141,
      "Ġcherches": 4142,
      "Ġfract": 4143,
      "ĠresponsabilitÃ©s": 4144,
      "ome": 4145,
      "Ġinnov": 4146,
      "Ġparce": 4147,
      "Ġparfait": 4148,
      "Ġemploi": 4149,
      "opter": 4150,
      "Ġinstant": 4151,
      "ĠlittÃ©rature": 4152,
      "Ġinteractions": 4153,
      "ception": 4154,
      "Ġpermis": 4155,
      "ĠÂ«": 4156,
      "Ġlaisser": 4157,
      "ĠCette": 4158,
      "agir": 4159,
      "Ã©ration": 4160,
      "Ġpaix": 4161,
      "Ġmor": 4162,
      "ades": 4163,
      "Ġactuelle": 4164,
      "Ġpression": 4165,
      "sy": 4166,
      "ĠessayÃ©": 4167,
      "Ġcontribu": 4168,
      "Ġajouter": 4169,
      "Ġfich": 4170,
      "Ġcontinue": 4171,
      "ython": 4172,
      "cieuse": 4173,
      "Ġfamiliale": 4174,
      "Ġord": 4175,
      "ĠcohÃ©r": 4176,
      "Ġfrom": 4177,
      "Ġcontinu": 4178,
      "Ġchale": 4179,
      "Ġauteurs": 4180,
      "ack": 4181,
      "Ġconcept": 4182,
      "Ġguer": 4183,
      "Ġprojets": 4184,
      "ĠdÃ©place": 4185,
      "Ġquotidiennes": 4186,
      "ĠRe": 4187,
      "fond": 4188,
      "Ġautom": 4189,
      "Ġreprendre": 4190,
      "Ġrecommandations": 4191,
      "Ġderniers": 4192,
      "Ġmou": 4193,
      "Ġparmi": 4194,
      "Ġretour": 4195,
      "cine": 4196,
      "Ġincroyablement": 4197,
      "Ġpierre": 4198,
      "Ġ1945": 4199,
      "Ã©curitÃ©": 4200,
      "ĠrÃ©sistants": 4201,
      "Ġorigin": 4202,
      "cdot": 4203,
      "ĠExc": 4204,
      "Ġtourne": 4205,
      "Ġseul": 4206,
      "enser": 4207,
      "Ã©di": 4208,
      "Ġdevons": 4209,
      "Ġtrait": 4210,
      "amitiÃ©": 4211,
      "Ġintense": 4212,
      "rez": 4213,
      "ĠAn": 4214,
      "Ġtechnique": 4215,
      "ĠSouhaites": 4216,
      "Ġconstante": 4217,
      "Ġimpressionnant": 4218,
      "Ġespace": 4219,
      "Ġall": 4220,
      "Ġincroyables": 4221,
      "ici": 4222,
      "Ã§u": 4223,
      "ĠMar": 4224,
      "ercices": 4225,
      "Ġconditions": 4226,
      "«¶": 4227,
      "ides": 4228,
      "appro": 4229,
      "entraÃ®": 4230,
      "Ġmagique": 4231,
      "Ġlarge": 4232,
      "comme": 4233,
      "Ġcaptiv": 4234,
      "Ġcommunau": 4235,
      "insp": 4236,
      "essayer": 4237,
      "Ġsuff": 4238,
      "Ġsports": 4239,
      "ĠspÃ©cifique": 4240,
      "amÃ¨": 4241,
      "Ġmontrer": 4242,
      "ĠÃ©duc": 4243,
      "Ġlectures": 4244,
      "fiÃ©": 4245,
      "Ġrecyclage": 4246,
      "ĠprioritÃ©s": 4247,
      "enant": 4248,
      "ute": 4249,
      "utilise": 4250,
      "ĠÃ©tape": 4251,
      "Ġsent": 4252,
      "endue": 4253,
      "Ġdurable": 4254,
      "Ġpourrions": 4255,
      "ĠdÃ©che": 4256,
      "Ġsembl": 4257,
      "Ġfascinante": 4258,
      "jus": 4259,
      "Ġprochain": 4260,
      "âĶĢâĶĢâĶĢâĶĢ": 4261,
      "Ãªmes": 4262,
      "Ġrecommanderais": 4263,
      "ĠâĿ¤ï¸ı": 4264,
      "titu": 4265,
      "Ġdevient": 4266,
      "ĠÃ©motionnel": 4267,
      "Ġformation": 4268,
      "ĠðŁĴŃ": 4269,
      "Ġmyst": 4270,
      "Ģï¸ı": 4271,
      "Ġliens": 4272,
      "Ã¢ce": 4273,
      "Ġbasse": 4274,
      "hiver": 4275,
      "ĠmÃ©de": 4276,
      "ividus": 4277,
      "Ã©ti": 4278,
      "Ġconversations": 4279,
      "Ġrecherches": 4280,
      "Ġenrichissant": 4281,
      "Ġdestin": 4282,
      "Ġtypique": 4283,
      "Ġsatisf": 4284,
      "oubl": 4285,
      "liquÃ©": 4286,
      "Ġjoue": 4287,
      "Ġsensibil": 4288,
      "ocu": 4289,
      "Ġsimp": 4290,
      "Ġtransi": 4291,
      "nu": 4292,
      "Ġpassi": 4293,
      "Ġlocal": 4294,
      "Ġmeilleur": 4295,
      "toi": 4296,
      "Ġforte": 4297,
      "ĠmodÃ¨les": 4298,
      "lÃł": 4299,
      "tuelle": 4300,
      "ĠComme": 4301,
      "ĠÅĵuvre": 4302,
      "ĠâĢĵ": 4303,
      "iciles": 4304,
      "Ãªts": 4305,
      "Ġeffectivement": 4306,
      "Ġdifficiles": 4307,
      "ĠCertains": 4308,
      "Ãªtes": 4309,
      "ĠpÃ©n": 4310,
      "Ġapais": 4311,
      "ĠðŁĵļ": 4312,
      "Ġparlant": 4313,
      "ĠprotÃ©": 4314,
      "Ġlorsqu": 4315,
      "ĠÃīt": 4316,
      "ĠrÃ©un": 4317,
      "ĠðŁĶİ": 4318,
      "citÃ©": 4319,
      "sie": 4320,
      "ĠcrÃ©ation": 4321,
      "Ġtester": 4322,
      "mer": 4323,
      "Ġveut": 4324,
      "ĠðŁ¤Ķ": 4325,
      "Ġgravitation": 4326,
      "Ã©poque": 4327,
      "Ġtarte": 4328,
      "Ã©nom": 4329,
      "nation": 4330,
      "Ġquanti": 4331,
      "ĠAlors": 4332,
      "Ġchauffer": 4333,
      "eng": 4334,
      "ĠvisitÃ©": 4335,
      "ĠNapole": 4336,
      "Ġtendance": 4337,
      "Ġcommuni": 4338,
      "ĠðŁĳĢ": 4339,
      "Ġpluie": 4340,
      "ĠRÃ©sistance": 4341,
      "ĠComp": 4342,
      "Ġutilise": 4343,
      "Ġvoyages": 4344,
      "Ġpositive": 4345,
      "ĠrÃ©con": 4346,
      "Ġdimensions": 4347,
      "niÃ¨re": 4348,
      "Ġfourn": 4349,
      "tuition": 4350,
      "Ġerreur": 4351,
      "trie": 4352,
      "mos": 4353,
      "Ġtard": 4354,
      "Ġtels": 4355,
      "Ġserv": 4356,
      "ĠdÃ©chets": 4357,
      "Ġbal": 4358,
      "apprÃ©ci": 4359,
      "Ġimpressions": 4360,
      "ĠmathÃ©matique": 4361,
      "ali": 4362,
      "Ġimportance": 4363,
      "ĠprÃ©fÃ©rÃ©e": 4364,
      "ibles": 4365,
      "Ġcelles": 4366,
      "Ġris": 4367,
      "Ġtemp": 4368,
      "Ġcompar": 4369,
      "Ġpermettre": 4370,
      "ĠvariÃ©s": 4371,
      "Ġtranquille": 4372,
      "Ġacces": 4373,
      "ĠÃ©nerg": 4374,
      "Ġpassionne": 4375,
      "Ġoublier": 4376,
      "Ġapplications": 4377,
      "ĠrÃ©guliÃ¨rement": 4378,
      "ipe": 4379,
      "Ġcos": 4380,
      "Ġrevenir": 4381,
      "Ġroule": 4382,
      "lent": 4383,
      "Ã©quation": 4384,
      "Ġmental": 4385,
      "Ġdirectement": 4386,
      "Ġnourr": 4387,
      "ĠgrÃ¢ce": 4388,
      "Ġsuite": 4389,
      "Ġaccomp": 4390,
      "Ġrestaur": 4391,
      "Ġrecommander": 4392,
      "Ġcombien": 4393,
      "agent": 4394,
      "Ġpersonnage": 4395,
      "gorith": 4396,
      "Ġoptim": 4397,
      "Ġsignifie": 4398,
      "avenir": 4399,
      "ĠsÃ»re": 4400,
      "Ġlorsque": 4401,
      "ĠÃ©trangÃ¨res": 4402,
      "Ġconsomm": 4403,
      "Ġbob": 4404,
      "xim": 4405,
      "Ġalle": 4406,
      "Ġmusicaux": 4407,
      "miner": 4408,
      "Ġavent": 4409,
      "expliquer": 4410,
      "Ġmouvement": 4411,
      "ĠdÃ©s": 4412,
      "ĠOp": 4413,
      "Ġprogres": 4414,
      "emples": 4415,
      "Ġaugment": 4416,
      "ĠtiÃ¨de": 4417,
      "Ġobj": 4418,
      "Ġbrume": 4419,
      "Ġsilence": 4420,
      "ĠPython": 4421,
      "ĠmÃ©dicales": 4422,
      "lectri": 4423,
      "Ġsuggestions": 4424,
      "ĠmouillÃ©e": 4425,
      "Ġextr": 4426,
      "opp": 4427,
      "parti": 4428,
      "Ġpein": 4429,
      "Ġnormal": 4430,
      "Ġlame": 4431,
      "ĠdÃ©r": 4432,
      "ĠaffÃ»te": 4433,
      "Ġcontact": 4434,
      "bes": 4435,
      "Ġinstruc": 4436,
      "Ġgouver": 4437,
      "Ġrepenser": 4438,
      "respond": 4439,
      "Ġcond": 4440,
      "ĠgravitÃ©": 4441,
      "up": 4442,
      "Ġrespire": 4443,
      "ĠmÃ©thodes": 4444,
      "Ġmu": 4445,
      "Ġinterpr": 4446,
      "Ġsugg": 4447,
      "ĠsÃ©curitÃ©": 4448,
      "ĠphÃ©nom": 4449,
      "ĠÃ©quation": 4450,
      "Ġrappelle": 4451,
      "Ġbougies": 4452,
      "ĠdorÃ©": 4453,
      "Ġconcentrer": 4454,
      "}{": 4455,
      "Ġras": 4456,
      "Ġod": 4457,
      "ĠÃ©volution": 4458,
      "Ġparlons": 4459,
      "Ġpre": 4460,
      "Ġintelligence": 4461,
      "Ġmessage": 4462,
      "Ġperdre": 4463,
      "ĠstratÃ©g": 4464,
      "forme": 4465,
      "Ġvaleur": 4466,
      "emp": 4467,
      "expÃ©rience": 4468,
      "ĠðŁĮ·": 4469,
      "Ġsituations": 4470,
      "Ã¨nes": 4471,
      "ĠdÃ©lic": 4472,
      "oser": 4473,
      "Ġhumaines": 4474,
      "talie": 4475,
      "Ġconversationnelle": 4476,
      "Ġressens": 4477,
      "ĠpÃ©nombre": 4478,
      "Ġbobine": 4479,
      "Ġrasante": 4480,
      "Ġappel": 4481,
      "agement": 4482,
      "Ġinternation": 4483,
      "tation": 4484,
      "ĠðŁĮ¸": 4485,
      "Uni": 4486,
      "Ġcombat": 4487,
      "liqu": 4488,
      "ĠðŁĴĽ": 4489,
      "reurs": 4490,
      "Ġcorrec": 4491,
      "ĠderriÃ¨re": 4492,
      "mod": 4493,
      "St": 4494,
      "Ġang": 4495,
      "atri": 4496,
      "rets": 4497,
      "analyse": 4498,
      "ĠðŁĮĪ": 4499,
      "Ġpause": 4500,
      "Ġcorrespond": 4501,
      "ĠðŁįĢ": 4502,
      "ĠrencontrÃ©": 4503,
      "ĠÃ©n": 4504,
      "Ġpropose": 4505,
      "Ġinterne": 4506,
      "indre": 4507,
      "ĠðŁ«¶": 4508,
      "Ġmajeur": 4509,
      "oue": 4510,
      "Ġconnaissance": 4511,
      "ĠdÃ©cision": 4512,
      "Ġpap": 4513,
      "ĠðŁĴ«": 4514,
      "Ġsaine": 4515,
      "ĠÃªtes": 4516,
      "Ġinfluenc": 4517,
      "Ġpotentiel": 4518,
      "aissance": 4519,
      "son": 4520,
      "ĠcornÃ©e": 4521,
      "Ġatte": 4522,
      "Ġcomparer": 4523,
      "Ġanimal": 4524,
      "Ġenvisager": 4525,
      "Ġactif": 4526,
      "exercice": 4527,
      "ĠcomplexitÃ©": 4528,
      "Ġactuel": 4529,
      "ĠpossibilitÃ©s": 4530,
      "rables": 4531,
      "ĠdÃ©ci": 4532,
      "Ġmontagnes": 4533,
      "ination": 4534,
      "Ġtouche": 4535,
      "Ġformes": 4536,
      "Ġsympa": 4537,
      "An": 4538,
      "sp": 4539,
      "ital": 4540,
      "Ġjusqu": 4541,
      "ume": 4542,
      "ub": 4543,
      "Ġclef": 4544,
      "Ġfem": 4545,
      "Ġpatin": 4546,
      "Ġuniver": 4547,
      "Ġretiens": 4548,
      "Ġnaturelle": 4549,
      "ĠParfaitement": 4550,
      "illitÃ©": 4551,
      "Un": 4552,
      "Ġtrou": 4553,
      "Ġgroupes": 4554,
      "Ġserai": 4555,
      "ĠtranquillitÃ©": 4556,
      "rein": 4557,
      "Ġflex": 4558,
      "Ġcollec": 4559,
      "Ġsorte": 4560,
      "Ġtelles": 4561,
      "Ã©rable": 4562,
      "Ġmarche": 4563,
      "Ġdispon": 4564,
      "Ġassistante": 4565,
      "ĠAprÃ¨s": 4566,
      "ĠdÃ©butant": 4567,
      "FO": 4568,
      "Ġdocu": 4569,
      "Ġmarqu": 4570,
      "Ġab": 4571,
      "low": 4572,
      "Ġdroit": 4573,
      "Ġfractale": 4574,
      "Ġexercices": 4575,
      "tionnelles": 4576,
      "Ġagents": 4577,
      "Ġpratiquant": 4578,
      "Ġparfaitement": 4579,
      "ĠderniÃ¨re": 4580,
      "Ġriches": 4581,
      "del": 4582,
      "Ġvar": 4583,
      "ĠðŁĮĻ": 4584,
      "Ġdistingue": 4585,
      "ĠÃ©cologiques": 4586,
      "Ġprincipaux": 4587,
      "AM": 4588,
      "ĠTh": 4589,
      "Ġculinaire": 4590,
      "Ġate": 4591,
      "ĠâĺĢï¸ı": 4592,
      "rure": 4593,
      "Ġserrure": 4594,
      "Ġsimil": 4595,
      "Ġsera": 4596,
      "Ġpassionnante": 4597,
      "Ġutilisant": 4598,
      "Ġstimul": 4599,
      "ĠÃ©lÃ¨": 4600,
      "ĠTon": 4601,
      "Ġcompos": 4602,
      "Ġamusant": 4603,
      "Ġgui": 4604,
      "Ġbelles": 4605,
      "ĠrÃ©seau": 4606,
      "Ġdevrait": 4607,
      "Ġthe": 4608,
      "Ġdifficul": 4609,
      "ĠÃ©tudi": 4610,
      "Ġ?**": 4611,
      "ĠComm": 4612,
      "ĠamitiÃ©": 4613,
      "Ġsaison": 4614,
      "Ġprobablement": 4615,
      "Ġefficacement": 4616,
      "Ġpauses": 4617,
      "influence": 4618,
      "ĠpatinÃ©e": 4619,
      "isations": 4620,
      "chant": 4621,
      "Ġmesure": 4622,
      "ĠmÃ©decine": 4623,
      "Ġdist": 4624,
      "Ġnat": 4625,
      "Ġmanip": 4626,
      "Ġaltern": 4627,
      "ortent": 4628,
      "Ġodeur": 4629,
      "Ġsuperbe": 4630,
      "Ġmulti": 4631,
      "Ġtransition": 4632,
      "unes": 4633,
      "tilis": 4634,
      "ĠmalgrÃ©": 4635,
      "Ġscientifique": 4636,
      "Ġcouleurs": 4637,
      "Ġimpacts": 4638,
      "Ġuniques": 4639,
      "tuel": 4640,
      "Ġperception": 4641,
      "Ġpont": 4642,
      "Ġconstamment": 4643,
      "phi": 4644,
      "Åĵuvre": 4645,
      "ĠÎ": 4646,
      "Ġemb": 4647,
      "ĠprÃ©cieux": 4648,
      "Ġmusiques": 4649,
      "Ġcommuniquer": 4650,
      "Ã©ma": 4651,
      "Ġmerveilleuse": 4652,
      "Ġci": 4653,
      "Ġvieux": 4654,
      "aud": 4655,
      "rig": 4656,
      "tro": 4657,
      "Ġmagnifiques": 4658,
      "Ġdevenir": 4659,
      "Ġpresque": 4660,
      "erveau": 4661,
      "ennent": 4662,
      "Ġrais": 4663,
      "Ã©tat": 4664,
      "individu": 4665,
      "ĠmÃ©mor": 4666,
      "isÃ©s": 4667,
      "Ġenrichissante": 4668,
      "anitÃ©": 4669,
      "tection": 4670,
      "Ġtouchant": 4671,
      "^{": 4672,
      "Ġ6": 4673,
      "ĠDi": 4674,
      "Ġenvers": 4675,
      "Ġsoutenir": 4676,
      "ĠDonc": 4677,
      "Ġconnu": 4678,
      "lev": 4679,
      "Ġperform": 4680,
      "fiant": 4681,
      "Ġcourir": 4682,
      "activitÃ©": 4683,
      "Ġis": 4684,
      "ĠPos": 4685,
      "Ġassocies": 4686,
      "QC": 4687,
      "tÃ©es": 4688,
      "Ġsorti": 4689,
      "haite": 4690,
      "Ġporte": 4691,
      "ray": 4692,
      "ĠrÃ©sume": 4693,
      "Ġ10": 4694,
      "Ġhorreurs": 4695,
      "amÃ¨tres": 4696,
      "emb": 4697,
      "Ġinform": 4698,
      "Ġrappeler": 4699,
      "Ġexist": 4700,
      "ĠmodÃ©lis": 4701,
      "Ĭï¸ı": 4702,
      "ķĬï¸ı": 4703,
      "Ġentretien": 4704,
      "Ġmasse": 4705,
      "ĠnÃ©gatifs": 4706,
      "iÃ¨res": 4707,
      "ules": 4708,
      "Ġcoin": 4709,
      "mm": 4710,
      "rt": 4711,
      "Ġof": 4712,
      "ĠcrÃ©ativitÃ©": 4713,
      "ht": 4714,
      "ĠvÃ©ri": 4715,
      "Ġessentielle": 4716,
      "ek": 4717,
      "FOAM": 4718,
      "ĠÃ©lÃ¨ves": 4719,
      "enses": 4720,
      "ĠdÃ©placements": 4721,
      "LM": 4722,
      "tec": 4723,
      "Ġcalcul": 4724,
      "ĠmusÃ©es": 4725,
      "Ġsign": 4726,
      "Ġminute": 4727,
      "ĠstratÃ©gie": 4728,
      "ĠðŁĳī": 4729,
      "aliser": 4730,
      "anges": 4731,
      "enFOAM": 4732,
      "Ġsymbol": 4733,
      "(\\": 4734,
      "ĠK": 4735,
      "urg": 4736,
      "acer": 4737,
      "fiÃ©e": 4738,
      "enf": 4739,
      "oubli": 4740,
      "ister": 4741,
      "Ġconstruire": 4742,
      "avier": 4743,
      "ĠpassionnÃ©e": 4744,
      "fait": 4745,
      "Ġpuisse": 4746,
      "ĠderniÃ¨res": 4747,
      "ĠÃ©quilibrÃ©e": 4748,
      "Ġcompris": 4749,
      "ĠplanÃ¨te": 4750,
      "Ã©motion": 4751,
      "Ġnatation": 4752,
      "ĠNo": 4753,
      "ĠpersonnalitÃ©": 4754,
      "Ġrenforcer": 4755,
      "Ġalgorith": 4756,
      "Ġinterac": 4757,
      "ĠcuriositÃ©": 4758,
      "Ġsavais": 4759,
      "Ġapprofond": 4760,
      "ĠthÃ©orie": 4761,
      "Ġciv": 4762,
      "Ġtente": 4763,
      "Ġnu": 4764,
      "Ġindividus": 4765,
      "ĠcÃ©lÃ¨bre": 4766,
      "Ġ<": 4767,
      "Ġsomme": 4768,
      "Ġentretiens": 4769,
      "Ġsemb": 4770,
      "ĠpensÃ©e": 4771,
      "Ġperdu": 4772,
      "Ġservices": 4773,
      "Ġouver": 4774,
      "Ġfig": 4775,
      "Ġconten": 4776,
      "ĠarriÃ¨re": 4777,
      "imag": 4778,
      "ĠNe": 4779,
      "Ġalimentaire": 4780,
      "ĠExcellent": 4781,
      "ablir": 4782,
      "Ġinv": 4783,
      "occu": 4784,
      "ĠdonnÃ©": 4785,
      "ĠÃ©nergie": 4786,
      "ĠCr": 4787,
      "ĠprÃ©pare": 4788,
      "prise": 4789,
      "Ġconseillerais": 4790,
      "ibilitÃ©": 4791,
      "Ġplantes": 4792,
      "Ã©couter": 4793,
      "Ġvoit": 4794,
      "Ġraf": 4795,
      "oublie": 4796,
      "amÃ©liorer": 4797,
      "lus": 4798,
      "Ġrig": 4799,
      "Ġextra": 4800,
      "Ġpromouv": 4801,
      "ĠBe": 4802,
      "Ġfacilement": 4803,
      "_{": 4804,
      "lais": 4805,
      "ĠdÃ©cl": 4806,
      "emploi": 4807,
      "isant": 4808,
      "Ġplage": 4809,
      "Ġanalyse": 4810,
      "crÃ¨tes": 4811,
      "ĠrÃ¨gles": 4812,
      "ĠNapoleon": 4813,
      "Ġchanson": 4814,
      "Ġpeinture": 4815,
      "Ġaccord": 4816,
      "arg": 4817,
      "Ġstructures": 4818,
      "issent": 4819,
      "ĠPrenons": 4820,
      "ĠutilisÃ©": 4821,
      "ĠpoÃ©tique": 4822,
      "cri": 4823,
      "int": 4824,
      "ĠÃ©lectr": 4825,
      "Ġsites": 4826,
      "Ġdeven": 4827,
      "illage": 4828,
      "Ġrythme": 4829,
      "Ġinattendu": 4830,
      "ho": 4831,
      "Ã«": 4832,
      "ĠMondiale": 4833,
      "Ġcritique": 4834,
      "Ġmur": 4835,
      "Ġsentier": 4836,
      "Ġoptions": 4837,
      "ĠrÃ©cente": 4838,
      "Ġromans": 4839,
      "Ġsolution": 4840,
      "acte": 4841,
      "ĠdÃ©bats": 4842,
      "Ġautomatique": 4843,
      "Ġdistance": 4844,
      "Ġtomb": 4845,
      "ypoth": 4846,
      "Ġnoirs": 4847,
      "Ġfranc": 4848,
      "Ġpratiquer": 4849,
      "Ġnourriture": 4850,
      "Ġsac": 4851,
      "Ġresse": 4852,
      "Ex": 4853,
      "agÃ©": 4854,
      "Ġsyn": 4855,
      "Ġculturel": 4856,
      "ĠcommunautÃ©": 4857,
      "Ġpeintures": 4858,
      "Ġcin": 4859,
      "Ġessentiels": 4860,
      "ĠpossibilitÃ©": 4861,
      "okes": 4862,
      "Ġvitesse": 4863,
      "ĠðŁİ": 4864,
      "to": 4865,
      "entendre": 4866,
      "Ã©coute": 4867,
      "Ġchien": 4868,
      "fort": 4869,
      "Ġprise": 4870,
      "Ġauc": 4871,
      "Ġpoids": 4872,
      "Ġconsommation": 4873,
      "sif": 4874,
      "ignement": 4875,
      "Ġcoll": 4876,
      "Ġexemples": 4877,
      "mathb": 4878,
      "ĠcontrÃ´le": 4879,
      "Ġencourager": 4880,
      "ĠrÃ©ussi": 4881,
      "Ġbons": 4882,
      "ĠconcrÃ¨tes": 4883,
      "Ġartistique": 4884,
      "nel": 4885,
      "cien": 4886,
      "Ġarri": 4887,
      "ĠdÃ©tente": 4888,
      "ĠmÃ©dias": 4889,
      "olÃ©on": 4890,
      "Ġuniverse": 4891,
      "Ã¨ce": 4892,
      "ĠRien": 4893,
      "Ġcourage": 4894,
      "Ġprincipales": 4895,
      "Ġpromouvoir": 4896,
      "arch": 4897,
      "ciens": 4898,
      "ĠThe": 4899,
      "Ġvoyager": 4900,
      "raÃ®ch": 4901,
      "Stokes": 4902,
      "oh": 4903,
      "ĠPouvez": 4904,
      "Ġproche": 4905,
      "ĠÃ©tant": 4906,
      "Ġnoter": 4907,
      "ĠbÃ©nÃ©fiques": 4908,
      "Ġcerveau": 4909,
      "lure": 4910,
      "Ġenvir": 4911,
      "Ġscience": 4912,
      "ox": 4913,
      "Ġcan": 4914,
      "ĠrafraÃ®ch": 4915,
      "ĠrÃ©elle": 4916,
      "Ġheures": 4917,
      "Ġdoi": 4918,
      "Ġfaite": 4919,
      "Ġmett": 4920,
      "ĠðŁĮ¿": 4921,
      "Ġactuels": 4922,
      "Ġspectac": 4923,
      "Ġsatisfaction": 4924,
      "Ġyeux": 4925,
      "ĠSt": 4926,
      "Ã©pend": 4927,
      "tiver": 4928,
      "alax": 4929,
      "Ġinattendue": 4930,
      "ĠðŁįµ": 4931,
      "Ġdiverses": 4932,
      "Ġclassiques": 4933,
      "Ġsauv": 4934,
      "Ġsuggestion": 4935,
      "Ġcou": 4936,
      "ĠperÃ§": 4937,
      "delÃł": 4938,
      "andes": 4939,
      "attention": 4940,
      "Ġclaires": 4941,
      "neu": 4942,
      "Ġexcitant": 4943,
      "ĠCompr": 4944,
      "ĠPosons": 4945,
      "oure": 4946,
      "ĠcollÃ¨": 4947,
      "Ġstyles": 4948,
      "Ġfacil": 4949,
      "Ġajou": 4950,
      "Ġexpli": 4951,
      "lusion": 4952,
      "ĠSon": 4953,
      "Ġproposer": 4954,
      "ĠdÃ©termin": 4955,
      "num": 4956,
      "utri": 4957,
      "Ġconcernant": 4958,
      "ĠÃ©mouvant": 4959,
      "QCE": 4960,
      "Ġintellig": 4961,
      "ĠmÃ©c": 4962,
      "ositions": 4963,
      "Ġconscient": 4964,
      "mathcal": 4965,
      "Ġobjets": 4966,
      "Ġabs": 4967,
      "ĠTerre": 4968,
      "Ġchemin": 4969,
      "ĠvÃ©cu": 4970,
      "Ġsoient": 4971,
      "armon": 4972,
      "ĠfrÃ©": 4973,
      "Ġlieux": 4974,
      "Ġpleinement": 4975,
      "Ġintrod": 4976,
      "Ġador": 4977,
      "ĠÃ©conomique": 4978,
      "ĠdÃ©mar": 4979,
      "acitÃ©s": 4980,
      "Ġâĺķ": 4981,
      "Ġbl": 4982,
      "ĠapprÃ©cies": 4983,
      "Ġfutur": 4984,
      "Ġfai": 4985,
      "ĠavancÃ©es": 4986,
      "ĠParlez": 4987,
      "Union": 4988,
      "ning": 4989,
      "ĠUtilis": 4990,
      "ðŁĴ": 4991,
      "Ġpreuve": 4992,
      "da": 4993,
      "Ġsouhaite": 4994,
      "Ġoption": 4995,
      "Ġciel": 4996,
      "ton": 4997,
      "ĠSa": 4998,
      "Ġconflit": 4999,
      "rale": 5000,
      "Ġcontribuer": 5001,
      "Ġchiens": 5002,
      "Ġopin": 5003,
      "Ġtexte": 5004,
      "Ġmilitaire": 5005,
      "ĠmystÃ¨res": 5006,
      "Ġ#": 5007,
      "enÃ§": 5008,
      "ĠparamÃ¨tres": 5009,
      "lÃ©s": 5010,
      "faits": 5011,
      "ĠpassionnÃ©": 5012,
      "ĠclÃ©s": 5013,
      "Ġpopul": 5014,
      "Ġweek": 5015,
      "ĠcÃ©lÃ©": 5016,
      "cieuses": 5017,
      "iennent": 5018,
      "Ġvivant": 5019,
      "Ġparc": 5020,
      "Ġcomprend": 5021,
      "ĠmotivÃ©": 5022,
      "if": 5023,
      "riez": 5024,
      "ĠrÃ©formes": 5025,
      "ĠParce": 5026,
      "assurer": 5027,
      "Ġatelier": 5028,
      "Ġ7": 5029,
      "Ġfichier": 5030,
      "ĠcomplÃ¨te": 5031,
      "Ġmas": 5032,
      "Ġexprimer": 5033,
      "Ġauth": 5034,
      "astronom": 5035,
      "Ġtot": 5036,
      "utes": 5037,
      "Ġgalax": 5038,
      "Ġtrous": 5039,
      "eta": 5040,
      "Ġforces": 5041,
      "ĠðŁķĬï¸ı": 5042,
      "Ġand": 5043,
      "ĠintÃ©ressÃ©e": 5044,
      "Ġexplore": 5045,
      "Ġappar": 5046,
      "organiser": 5047,
      "ĠtransformÃ©": 5048,
      "Ġ8": 5049,
      "Ġdix": 5050,
      "opportun": 5051,
      "aff": 5052,
      "Ġgastronom": 5053,
      "Ġadopter": 5054,
      "Ġsolide": 5055,
      "ĠparticuliÃ¨re": 5056,
      "Ġguerres": 5057,
      "orme": 5058,
      "Ġgenti": 5059,
      "ĠspÃ©cialitÃ©s": 5060,
      "Ġemprein": 5061,
      "Ġsait": 5062,
      "Ġcomplet": 5063,
      "Ã©tation": 5064,
      "Ġrespecter": 5065,
      "Ġpassions": 5066,
      "ĠcrÃªte": 5067,
      "Ġphrase": 5068,
      "Ġprofessionnel": 5069,
      "ĠsiÃ¨": 5070,
      "ĠgÃ©nÃ©rer": 5071,
      "Ġmach": 5072,
      "agner": 5073,
      "Ġseule": 5074,
      "Ġsemblent": 5075,
      ".)": 5076,
      "ary": 5077,
      "ailles": 5078,
      "Ġbienfaits": 5079,
      "Ġorient": 5080,
      "Ġcroiss": 5081,
      "ĠconsidÃ©rable": 5082,
      "ĠreprÃ©sent": 5083,
      "\"**": 5084,
      "Ġastu": 5085,
      "Ġatti": 5086,
      "Ġpert": 5087,
      "ciper": 5088,
      "actÃ©": 5089,
      "ĠextrÃªme": 5090,
      "ctu": 5091,
      "hors": 5092,
      "Ġvin": 5093,
      "Ġquotidiens": 5094,
      "ĠÃ©conomiques": 5095,
      "*,": 5096,
      "Ġprofondes": 5097,
      "ĠðŁ¤į": 5098,
      "humanitÃ©": 5099,
      "ĠcompliquÃ©": 5100,
      "Ġconfort": 5101,
      "ĠCa": 5102,
      "Ġretrouver": 5103,
      "Ġsensation": 5104,
      "Ġcause": 5105,
      "Ġefforts": 5106,
      "own": 5107,
      "Ġsembler": 5108,
      "qrt": 5109,
      "Ġcuisines": 5110,
      "ĠcapacitÃ©s": 5111,
      "ĠdÃ©velopp": 5112,
      "ĠpoÃ©": 5113,
      "ĠdÃ»": 5114,
      "Ġtal": 5115,
      "ĠfraÃ®": 5116,
      "Ġdurables": 5117,
      "ĠNavier": 5118,
      "Ġsouhaites": 5119,
      "viÃ¨me": 5120,
      "Ġinspirant": 5121,
      "ke": 5122,
      "ĠverriÃ¨re": 5123,
      "oriz": 5124,
      "ĠmÃ©thode": 5125,
      "mosph": 5126,
      "Ã«l": 5127,
      "Ġnutri": 5128,
      "ortes": 5129,
      "Ġtourn": 5130,
      "Ġenseign": 5131,
      "neuviÃ¨me": 5132,
      "mo": 5133,
      "ĠÃ©quilibrÃ©": 5134,
      "Ġvaut": 5135,
      "ĠnotÃ©": 5136,
      "ĠInter": 5137,
      "ĠintÃ©grer": 5138,
      "entraÃ®nement": 5139,
      "ĠÃ©voluer": 5140,
      "ma": 5141,
      "sqrt": 5142,
      "abla": 5143,
      "ĠfranÃ§aises": 5144,
      "ĠðŁĺĬ": 5145,
      "organisation": 5146,
      "Ġglobale": 5147,
      "Tu": 5148,
      "Ġsoupe": 5149,
      "ĠPuis": 5150,
      "Ġpossibles": 5151,
      "interaction": 5152,
      "Ġsimpli": 5153,
      "Ġfrancoph": 5154,
      "ĠÃ©lev": 5155,
      "istant": 5156,
      "Ġcitoy": 5157,
      "uner": 5158,
      "tient": 5159,
      "Ġhy": 5160,
      "ĠrÃ©sumÃ©": 5161,
      "ensionn": 5162,
      "ĠdÃ¨s": 5163,
      "Ġgar": 5164,
      "Ġtruc": 5165,
      "Ġflui": 5166,
      "Ġvib": 5167,
      "Ġcontrain": 5168,
      "ĠEss": 5169,
      "ensitÃ©": 5170,
      "Ã©trie": 5171,
      "idÃ©es": 5172,
      "Ġsembles": 5173,
      "Ġdoux": 5174,
      "Ġagent": 5175,
      "Ġcombin": 5176,
      "Ġital": 5177,
      "Ġjard": 5178,
      "Ġcarb": 5179,
      "Ġressentir": 5180,
      "Italie": 5181,
      "rap": 5182,
      "ordinaire": 5183,
      "ĠdÃ©tendre": 5184,
      "sych": 5185,
      "jout": 5186,
      "ambiance": 5187,
      "adorerais": 5188,
      "Ġmilli": 5189,
      "Ġmanquer": 5190,
      "ĠmarchÃ©": 5191,
      "Ġinternes": 5192,
      "Ġtermin": 5193,
      "Ġaimez": 5194,
      "hab": 5195,
      "urance": 5196,
      "aspect": 5197,
      "Ġentour": 5198,
      "Ġchamps": 5199,
      "Ġpresse": 5200,
      "ON": 5201,
      "ĠgÃ©nÃ©rale": 5202,
      "nabla": 5203,
      "Ġpous": 5204,
      "Ġtrad": 5205,
      "rÃªts": 5206,
      "consci": 5207,
      "ĠprÃ©sence": 5208,
      "Ġfromage": 5209,
      "anim": 5210,
      "chement": 5211,
      "ĠvidÃ©os": 5212,
      "ĠÃ©tudier": 5213,
      "ĠLLM": 5214,
      "Ã©ritÃ©": 5215,
      "intÃ©rÃªt": 5216,
      "Agent": 5217,
      "Ġ$": 5218,
      "Ġvoie": 5219,
      "Ġparticip": 5220,
      "Ġpersonnels": 5221,
      "Ġloisir": 5222,
      "avoue": 5223,
      "Ġfaites": 5224,
      "partial": 5225,
      "Ġinstructif": 5226,
      "ĠpÃ¢": 5227,
      "Ġsinc": 5228,
      "Ġfaud": 5229,
      "quation": 5230,
      "Ġinoubli": 5231,
      "ilieu": 5232,
      "ĠÃ©pis": 5233,
      "homme": 5234,
      "ĠîĪ": 5235,
      "Ġvol": 5236,
      "Ġcarre": 5237,
      "Ġattentive": 5238,
      "athie": 5239,
      "ĠNoÃ«l": 5240,
      "oureux": 5241,
      "auto": 5242,
      "expression": 5243,
      "Ġposte": 5244,
      "Ġculturelle": 5245,
      "Ġcomportements": 5246,
      "Ġtraiter": 5247,
      "Ġvir": 5248,
      "iller": 5249,
      "ĠprÃ©occup": 5250,
      "Ġgrati": 5251,
      "ots": 5252,
      "Ġimpati": 5253,
      "ĠintÃ©rÃªt": 5254,
      "ĠdifficultÃ©s": 5255,
      "Ġmilieu": 5256,
      "Ġobtenir": 5257,
      "ta": 5258,
      "Ġpensais": 5259,
      "ĠÃ©vÃ©nement": 5260,
      "Ġaident": 5261,
      "ĠthÃ¨mes": 5262,
      "ĠtÃ¢che": 5263,
      "Ġpuissant": 5264,
      "ĠOpenFOAM": 5265,
      "pente": 5266,
      "Ġpsych": 5267,
      "ĠgÃ©nÃ©ration": 5268,
      "Ġinitiatives": 5269,
      "Ġfrancophone": 5270,
      "ama": 5271,
      "Ġrecons": 5272,
      "ĠmÃ©lo": 5273,
      "Ġponton": 5274,
      "rage": 5275,
      "veill": 5276,
      "dim": 5277,
      "Ġgrange": 5278,
      "ĠprÃ©fÃ©rÃ©es": 5279,
      "ĠÃ©changes": 5280,
      "Ġmouvements": 5281,
      "Ġprogramme": 5282,
      "tissement": 5283,
      "gues": 5284,
      "ĠcaractÃ©": 5285,
      "Ġcharpente": 5286,
      "intÃ©gration": 5287,
      "Ġspectacle": 5288,
      "Ã©cu": 5289,
      "quel": 5290,
      "rite": 5291,
      "ĠðŁĴ¡": 5292,
      "Ġprochaines": 5293,
      "oulez": 5294,
      "ĠquantitÃ©": 5295,
      "_\\": 5296,
      "Ġsommeil": 5297,
      "Ġtraditionnels": 5298,
      "mosphÃ¨re": 5299,
      "Ġto": 5300,
      "Ġaurait": 5301,
      "ĠÃ©lectri": 5302,
      "Ã©rence": 5303,
      "Ġexplor": 5304,
      "Ġrendent": 5305,
      "Ġquantiques": 5306,
      "Ġprivil": 5307,
      "Ġpopulaire": 5308,
      "ĠcarrelÃ©e": 5309,
      "usion": 5310,
      "Ġdehors": 5311,
      "Ġprot": 5312,
      "Ġcool": 5313,
      "Ġdirect": 5314,
      "ĠcomplÃ¨tement": 5315,
      "Ġsucre": 5316,
      "Ġactuelles": 5317,
      "ĠdÃ©finir": 5318,
      "Ġminutes": 5319,
      "Ã©ter": 5320,
      "Ġans": 5321,
      "Ġscal": 5322,
      "Ġcontente": 5323,
      "ĠgoÃ»t": 5324,
      "ĠÃ©changer": 5325,
      "Ġminim": 5326,
      "MIRA": 5327,
      "pes": 5328,
      "}\\": 5329,
      "Ġait": 5330,
      "sim": 5331,
      "Ġavaient": 5332,
      "tructure": 5333,
      "Ġcharme": 5334,
      "Ġincon": 5335,
      "Ġpromenade": 5336,
      "Ġaccessible": 5337,
      "ĠflexibilitÃ©": 5338,
      "reur": 5339,
      "ork": 5340,
      "Ġexpres": 5341,
      "ĠJean": 5342,
      "Ġdialogue": 5343,
      "Ġtableau": 5344,
      "Ġcitoyens": 5345,
      "ĠWow": 5346,
      "mentation": 5347,
      "Ġnation": 5348,
      "Ġpropri": 5349,
      "Ġgras": 5350,
      "Ġempreinte": 5351,
      "ĠÃ¢": 5352,
      "Ġray": 5353,
      "onnec": 5354,
      "exprimer": 5355,
      "Ġcourse": 5356,
      "Ġdessus": 5357,
      "ĠintÃ©rieure": 5358,
      "Ġallons": 5359,
      "rho": 5360,
      "Ġplages": 5361,
      "Ġrestaurants": 5362,
      "pas": 5363,
      "Ġmise": 5364,
      "ĠQuant": 5365,
      "ĠÃ©tudes": 5366,
      "identi": 5367,
      "enseignement": 5368,
      "Ġsurprise": 5369,
      "off": 5370,
      "psi": 5371,
      "Ġguide": 5372,
      "accomp": 5373,
      "ĠNapolÃ©on": 5374,
      "chantÃ©e": 5375,
      "turÃ©": 5376,
      "Ġpose": 5377,
      "oureuse": 5378,
      "ĠgÃ©om": 5379,
      "Ġrencontres": 5380,
      "Ġsignificatif": 5381,
      "Ġalgorithmes": 5382,
      "PI": 5383,
      "Ã¨tes": 5384,
      "Ġapportent": 5385,
      "Ġpermettrait": 5386,
      "Ġurg": 5387,
      "Ġru": 5388,
      "Ġgard": 5389,
      "ĠmatÃ©ri": 5390,
      "ype": 5391,
      "Ġraconte": 5392,
      "Ġculturelles": 5393,
      "ĠðŁĺĦ": 5394,
      "Ġobjectif": 5395,
      "ĠphÃ©nomÃ¨nes": 5396,
      "ĠcarriÃ¨re": 5397,
      "ĠdÃ©licieuse": 5398,
      "ĠÃ©ducatif": 5399,
      "ĠrÃ©confort": 5400,
      "co": 5401,
      "dent": 5402,
      "mathbf": 5403,
      "Ġrempl": 5404,
      "Ġcardi": 5405,
      "Ġ17": 5406,
      "Ġsortir": 5407,
      "ĠÃ©cr": 5408,
      "ĠspÃ©ciaux": 5409,
      "Ġparlent": 5410,
      "ĠprÃ©paration": 5411,
      "matique": 5412,
      "nÃ©": 5413,
      "ĠliÃ©s": 5414,
      "ambda": 5415,
      "Ġimages": 5416,
      "mand": 5417,
      "time": 5418,
      "ortex": 5419,
      "Ġvenir": 5420,
      "ĠconcrÃ¨tement": 5421,
      "Ġmusical": 5422,
      "Ġintrigu": 5423,
      "Ġnaturels": 5424,
      "ĠmathÃ©matiques": 5425,
      "ĠCrown": 5426,
      "ĠPenses": 5427,
      "ates": 5428,
      "eriez": 5429,
      "ĠimmÃ©di": 5430,
      "ĠprÃ©vu": 5431,
      "Ġuni": 5432,
      "ĠðŁ§ł:": 5433,
      "Ġaugmenter": 5434,
      "Je": 5435,
      "ĠÃ©crit": 5436,
      "Ġappor": 5437,
      "Ġsensible": 5438,
      "Ġconnecter": 5439,
      "xi": 5440,
      "Ġvoc": 5441,
      "Ġju": 5442,
      "tivitÃ©": 5443,
      "Ġincont": 5444,
      "Ġmener": 5445,
      "ĠprotÃ©ger": 5446,
      "Ġhau": 5447,
      "ularitÃ©": 5448,
      "Ġaction": 5449,
      "ĠFQCE": 5450,
      "Ġsold": 5451,
      "ĠÃ©cologique": 5452,
      "Ã¨rent": 5453,
      "ĠenchantÃ©e": 5454,
      "licitÃ©": 5455,
      "Ġdoivent": 5456,
      "Ġsal": 5457,
      "Ġhomme": 5458,
      "Ġprofonds": 5459,
      "Op": 5460,
      "ĠÃ©cl": 5461,
      "Ġessentielles": 5462,
      "Ã©motions": 5463,
      "isÃ©es": 5464,
      "ocra": 5465,
      "urbul": 5466,
      "interpr": 5467,
      "Ġpeup": 5468,
      "Ġarbres": 5469,
      "ĠextrÃªmement": 5470,
      "Ġsel": 5471,
      "endurance": 5472,
      "Ġhabitude": 5473,
      "ĠchÃ¢teau": 5474,
      "ĠÃ©tang": 5475,
      "Ġâŀ": 5476,
      "ĠgoÃ»ts": 5477,
      "Ġservir": 5478,
      "ĠtouchÃ©": 5479,
      "icacitÃ©": 5480,
      "ĠintÃ©rÃªts": 5481,
      "fications": 5482,
      "Ġscientifiques": 5483,
      "*.": 5484,
      "intri": 5485,
      "Ġaccep": 5486,
      "ĠallÃ©": 5487,
      "Ġpouvait": 5488,
      "ĠdiscutÃ©": 5489,
      "Ġtrois": 5490,
      "Ġmessages": 5491,
      "Ġperturb": 5492,
      "Ġloisirs": 5493,
      "ĠcaractÃ©ris": 5494,
      "Pr": 5495,
      "astiques": 5496,
      "oyer": 5497,
      "Ã©galitÃ©": 5498,
      "Ġparticiper": 5499,
      "Ġfamilles": 5500,
      "ĠÃ©tapes": 5501,
      "Ġgratifiant": 5502,
      "cÃ¨s": 5503,
      "Ġâļ": 5504,
      "Ġvarier": 5505,
      "ĠstabilitÃ©": 5506,
      "ĠcontrÃ´": 5507,
      "ĠstratÃ©gies": 5508,
      "Ġmanipuler": 5509,
      "mÃªmes": 5510,
      "vers": 5511,
      "Â²": 5512,
      "Ġsus": 5513,
      "Ġempl": 5514,
      "Ġvillage": 5515,
      "Ġexplications": 5516,
      "servation": 5517,
      "ĠidentitÃ©": 5518,
      "bas": 5519,
      "Ġjeunes": 5520,
      "Ġplastique": 5521,
      "ĠopportunitÃ©": 5522,
      "ĠdÃ©battre": 5523,
      "dessus": 5524,
      "ed": 5525,
      "Ġblu": 5526,
      "Ġprov": 5527,
      "Ġflux": 5528,
      "ĠpiÃ¨ce": 5529,
      "ĠmÃ©ditation": 5530,
      "avez": 5531,
      "Ġrob": 5532,
      "ĠÃ©vid": 5533,
      "auv": 5534,
      "ĠfascinÃ©": 5535,
      "tÃ©rieur": 5536,
      "Ġmys": 5537,
      "Ġerreurs": 5538,
      "avec": 5539,
      "ĠMÃªme": 5540,
      "rang": 5541,
      "Ġtrouvez": 5542,
      "Ġalli": 5543,
      "Ġphotos": 5544,
      "Ġresponsable": 5545,
      "ĠÃ©voluÃ©": 5546,
      "ĠcontribuÃ©": 5547,
      "inspiration": 5548,
      "Ġmachine": 5549,
      "rog": 5550,
      "Ġsurv": 5551,
      "oyau": 5552,
      "ĠcrÃ©e": 5553,
      "Ġbases": 5554,
      "Ġimaginer": 5555,
      "Ġsymbolique": 5556,
      "rons": 5557,
      "ouis": 5558,
      "onner": 5559,
      "rÃ©er": 5560,
      "cueil": 5561,
      "Ġastuces": 5562,
      "Ġpois": 5563,
      "Ġven": 5564,
      "Ġgrandir": 5565,
      "---|": 5566,
      "Ġrestant": 5567,
      "Ġpapier": 5568,
      "Ġling": 5569,
      "Ġoiseaux": 5570,
      "ĠinspirÃ©": 5571,
      "ĠdÃ©cidÃ©": 5572,
      "crip": 5573,
      "ĠfrÃ©qu": 5574,
      "ga": 5575,
      "Ġmontrent": 5576,
      "Ġdiversi": 5577,
      "ĠvÃ©rifier": 5578,
      "ĠmÃ©tro": 5579,
      "ki": 5580,
      "quelle": 5581,
      "Ġprotection": 5582,
      "ĠÃ©change": 5583,
      "Ġrespectu": 5584,
      "tic": 5585,
      "ĠfÃªtes": 5586,
      "Ġ**\"": 5587,
      "Ġdynamiques": 5588,
      "Ġsoins": 5589,
      "Ġdialoguer": 5590,
      "Ġgalaxies": 5591,
      "ĠdÃ©tec": 5592,
      "tui": 5593,
      "Ġspor": 5594,
      "ensor": 5595,
      "Ġparties": 5596,
      "Ġfascinants": 5597,
      "Ġparticuliers": 5598,
      "ĠorganisÃ©": 5599,
      "Ã©riques": 5600,
      "apporter": 5601,
      "ĠaccÃ¨s": 5602,
      "Ġzones": 5603,
      "Ġespaces": 5604,
      "Ġplate": 5605,
      "ĠrÃ©cit": 5606,
      "ĠscÃ©nari": 5607,
      "Ġentier": 5608,
      "Ġdurant": 5609,
      "Ġsoulig": 5610,
      "Ġmilitaires": 5611,
      "Ġallez": 5612,
      "Ġmois": 5613,
      "orig": 5614,
      "Ġphase": 5615,
      "ĠÃ©tats": 5616,
      "ĠÃ©quipe": 5617,
      "Ġfournir": 5618,
      "ement": 5619,
      "Ġautonom": 5620,
      "Ġadore": 5621,
      "ting": 5622,
      "Ġscri": 5623,
      "Ġ20": 5624,
      "Ġatteindre": 5625,
      "Ġ18": 5626,
      "ĠdÃ©je": 5627,
      "Ġefficaces": 5628,
      "ĠregardÃ©": 5629,
      "Ġfaudrait": 5630,
      "ah": 5631,
      "ness": 5632,
      "ĠX": 5633,
      "Ġutilisation": 5634,
      "Ġpollu": 5635,
      "Ġfrus": 5636,
      "Ġtransformer": 5637,
      "Ã©tiques": 5638,
      "tÃ©n": 5639,
      "ĠannÃ©e": 5640,
      "Ġlongue": 5641,
      "utilisateur": 5642,
      "Ġrelaxant": 5643,
      "ĠpoÃ©sie": 5644,
      "Ġtension": 5645,
      "Ġarchitecture": 5646,
      "Ġcourag": 5647,
      "ĠÃ©crire": 5648,
      "jectif": 5649,
      "ich": 5650,
      "Ġpan": 5651,
      "Ġsois": 5652,
      "ĠÃ®": 5653,
      "Ġreconnaissance": 5654,
      "Ġoccasion": 5655,
      "ĠintÃ©rieur": 5656,
      "ĠdÃ©clen": 5657,
      "Ġpomp": 5658,
      "Ġtensions": 5659,
      "Ġimage": 5660,
      "Ġlutter": 5661,
      "âĶĢâĶĢâĶĢâĶĢâĶĢâĶĢâĶĢâĶĢ": 5662,
      "Ġgouvernement": 5663,
      "Ġpourras": 5664,
      "Ġhypoth": 5665,
      "ĠdÃ©mocra": 5666,
      "ĠComplÃ¨": 5667,
      "Ġaventures": 5668,
      "ĠdÃ©licat": 5669,
      "Ġlinguis": 5670,
      "olue": 5671,
      "ĠaidÃ©": 5672,
      "Ġrepos": 5673,
      "Ġmorce": 5674,
      "Ġfid": 5675,
      "ĠâĢ¢": 5676,
      "ĠrÃ©solution": 5677,
      "Ġcondition": 5678,
      "Ġay": 5679,
      "tie": 5680,
      "Ġsuffis": 5681,
      "spagne": 5682,
      "Ġrichesse": 5683,
      "ĠÃ©tonnant": 5684,
      "Ġpublics": 5685,
      "ĠtÃ©": 5686,
      "Ġfes": 5687,
      "eures": 5688,
      "Ġapprentissage": 5689,
      "iroir": 5690,
      "tranger": 5691,
      "Ġcompacte": 5692,
      "ature": 5693,
      "ĠtÃ©lÃ©": 5694,
      "Ġfra": 5695,
      "ĠÃ©th": 5696,
      "efficacitÃ©": 5697,
      "Ġaucun": 5698,
      "Ġservice": 5699,
      "Ġextraordinaire": 5700,
      "dans": 5701,
      "Ġlancer": 5702,
      "ĠquÃªte": 5703,
      "ĠcrÃ©Ã©": 5704,
      "ĠGo": 5705,
      "Ġinfluencent": 5706,
      "ĠComplÃ¨tement": 5707,
      "En": 5708,
      "quels": 5709,
      "Ġvortex": 5710,
      "Ġmodes": 5711,
      "ĠpÃ©riodes": 5712,
      "Ġlimite": 5713,
      "ĠðŁĶį": 5714,
      "ĠsiÃ¨cle": 5715,
      "ceur": 5716,
      "Ġfati": 5717,
      "Ġparents": 5718,
      "andard": 5719,
      "stÃ¨me": 5720,
      "pha": 5721,
      "Ġattends": 5722,
      "Ġsolaire": 5723,
      "Ġconvient": 5724,
      "Ġsouhait": 5725,
      "Ġrepose": 5726,
      "Ġvalid": 5727,
      "Ġcontenu": 5728,
      "Ġtrai": 5729,
      "avig": 5730,
      "Ġinteraction": 5731,
      "Ġsuppose": 5732,
      "Ġarriver": 5733,
      "ilien": 5734,
      "Ġaurais": 5735,
      "ĠrÃ©cup": 5736,
      "ape": 5737,
      "atoire": 5738,
      "Ġclairement": 5739,
      "Ġmauv": 5740,
      "Ġprincipes": 5741,
      "Ġfutures": 5742,
      "aprÃ¨s": 5743,
      "Ġdiv": 5744,
      "Ġrestent": 5745,
      "expÃ©riences": 5746,
      "ĠdÃ©jeuner": 5747,
      "istÃ©": 5748,
      "effet": 5749,
      "ĠBov": 5750,
      "Ã©ni": 5751,
      "ĠÃ©merg": 5752,
      "ĠÃ©vo": 5753,
      "Ġsoldats": 5754,
      ".\"": 5755,
      "Al": 5756,
      "ctions": 5757,
      "}{\\": 5758,
      "Ġlaquelle": 5759,
      "adame": 5760,
      "Ã©changer": 5761,
      "Ġfemmes": 5762,
      "ĠBovary": 5763,
      "oÃ¯": 5764,
      "Ġastr": 5765,
      "Ã©rÃ©e": 5766,
      "ĠÏ": 5767,
      "ĠMa": 5768,
      "rib": 5769,
      "Ġcourant": 5770,
      "timisation": 5771,
      "important": 5772,
      "Ĳ±": 5773,
      "Ġmets": 5774,
      "diction": 5775,
      "ordre": 5776,
      "croyable": 5777,
      "ĠFranÃ§": 5778,
      "Ġcontent": 5779,
      "bres": 5780,
      "Ã©rez": 5781,
      "Ġturbul": 5782,
      "ĠentraÃ®nÃ©e": 5783,
      "Ġencourage": 5784,
      ")\\": 5785,
      "Ġ'": 5786,
      "ĠcommenÃ§": 5787,
      "ĠliÃ©": 5788,
      "ĠbasÃ©": 5789,
      "Ġexploration": 5790,
      "ĠamÃ©lior": 5791,
      "Ġanalyser": 5792,
      "ber": 5793,
      "intuition": 5794,
      "Ġentrepr": 5795,
      "ings": 5796,
      "Ġcharge": 5797,
      "Ġfluides": 5798,
      "gne": 5799,
      "Ġvoiture": 5800,
      "Ġrecommande": 5801,
      "Ġimpr": 5802,
      "Ġstrates": 5803,
      "othÃ¨": 5804,
      "Ġcomparaison": 5805,
      "Ġdocument": 5806,
      "Ġtournures": 5807,
      "bum": 5808,
      "Ġsurm": 5809,
      "âĢĻ**": 5810,
      "avent": 5811,
      "Ġpersonnal": 5812,
      "Ġcach": 5813,
      "Ġfonctionnement": 5814,
      "Ġenrichir": 5815,
      "Ġproduc": 5816,
      "Ġdestination": 5817,
      "Ġmoteur": 5818,
      "Ġracines": 5819,
      "Ġdirecte": 5820,
      "ĠnÃ©cessite": 5821,
      "ĠmÃ©lodies": 5822,
      "hist": 5823,
      "onction": 5824,
      "Ġvoulez": 5825,
      "Ġcherchent": 5826,
      "ĠorientÃ©": 5827,
      "ajouter": 5828,
      "hy": 5829,
      "atles": 5830,
      "Ġdisponibles": 5831,
      "ĠBeatles": 5832,
      "Flow": 5833,
      "mÃ©": 5834,
      "ote": 5835,
      "Ġdouceur": 5836,
      "Ġnobles": 5837,
      "ĠmÃ©morable": 5838,
      "ĠEssay": 5839,
      "sons": 5840,
      "¦ī": 5841,
      "Ġcroy": 5842,
      "Ġsimuler": 5843,
      "ĠstructurÃ©": 5844,
      "occuper": 5845,
      "lection": 5846,
      "ĠJul": 5847,
      "ĠÃ©nergÃ©tique": 5848,
      "ĠcinÃ©ma": 5849,
      "ĠprivilÃ©g": 5850,
      "ive": 5851,
      "Ġsonne": 5852,
      "innov": 5853,
      "oign": 5854,
      "ĠfaÃ§onnÃ©": 5855,
      "Ġgros": 5856,
      "ĠfascinÃ©e": 5857,
      "ĠvariÃ©es": 5858,
      "Ġpermettra": 5859,
      "Ġcontraintes": 5860,
      "ĠLouvre": 5861,
      "aint": 5862,
      "accent": 5863,
      "Ġbibli": 5864,
      "vÃ©n": 5865,
      "cheter": 5866,
      "Ã©tÃ©s": 5867,
      "Ġrecommandation": 5868,
      "ĠlinÃ©": 5869,
      "Ġconnaissais": 5870,
      "Ġstimulant": 5871,
      "vÃ©nient": 5872,
      "mÃ©t": 5873,
      "ĠpÃ¢te": 5874,
      "ĠCor": 5875,
      "ĠinÃ©g": 5876,
      "Ġtrag": 5877,
      "Ġchoisi": 5878,
      "Ġmusicale": 5879,
      "Ġproduit": 5880,
      "ensorFlow": 5881,
      "Ġrendu": 5882,
      "Ġbar": 5883,
      "pi": 5884,
      "ropie": 5885,
      "Ġauras": 5886,
      "Ã©viter": 5887,
      "Ġmeilleures": 5888,
      "Ġapprofondir": 5889,
      "Ġgastronomies": 5890,
      "alpha": 5891,
      "Ġindi": 5892,
      "riers": 5893,
      "ĠprÃ©cÃ©d": 5894,
      "Ġdemain": 5895,
      "Ġsouffran": 5896,
      "ĠnumÃ©riques": 5897,
      "auche": 5898,
      "Ġmemb": 5899,
      "sert": 5900,
      "Ã©ros": 5901,
      "Ġreviens": 5902,
      "Ġconnue": 5903,
      "enfance": 5904,
      "times": 5905,
      "Ġfaisant": 5906,
      "ĠnÃ©cessaires": 5907,
      "Ġglobal": 5908,
      "Ġpompeuses": 5909,
      "Ġauteur": 5910,
      "resser": 5911,
      "Ġexercice": 5912,
      "Ġcoups": 5913,
      "Ġavancer": 5914,
      "Ġpertinent": 5915,
      "Ġsimulations": 5916,
      "Ġressemble": 5917,
      "Ġdevrions": 5918,
      "Ã©quipe": 5919,
      "ĠvariÃ©e": 5920,
      "ĠIncroyable": 5921,
      "Ġengag": 5922,
      "Ġdestinations": 5923,
      "bri": 5924,
      "ĻĤ": 5925,
      "ĠSim": 5926,
      "attends": 5927,
      "exploration": 5928,
      "ĠdÃ©terminer": 5929,
      "Ġcognitive": 5930,
      "apprÃ©cier": 5931,
      "Ġvic": 5932,
      "Ġnuit": 5933,
      "Ġnavig": 5934,
      "Ġbo": 5935,
      "Ġinformation": 5936,
      "ðŁ¤": 5937,
      "ular": 5938,
      "Ġamb": 5939,
      "Ġpourriez": 5940,
      "Ġvoici": 5941,
      "Ġniveaux": 5942,
      "Ġinoubliable": 5943,
      "Ġscalaire": 5944,
      "ĠdensitÃ©": 5945,
      "anche": 5946,
      "Ġ\\),": 5947,
      "ĠgÃ©ni": 5948,
      "Ġinfin": 5949,
      "ĠrÃ©volutions": 5950,
      "Ġ*\"": 5951,
      "10": 5952,
      "mis": 5953,
      "Ġexig": 5954,
      "onsci": 5955,
      "Ġesc": 5956,
      "ĠrÃ©silien": 5957,
      "ynamique": 5958,
      "Ġprincipal": 5959,
      "ailleurs": 5960,
      "ĠmarquÃ©e": 5961,
      "Ġouverte": 5962,
      "bo": 5963,
      "ices": 5964,
      "vant": 5965,
      "ĠAr": 5966,
      "Ġchoisis": 5967,
      "Ġjardin": 5968,
      "ensemble": 5969,
      "Ġneuron": 5970,
      "Ġordin": 5971,
      "ĠapportÃ©": 5972,
      "Ġadop": 5973,
      "Ġposition": 5974,
      "Ġpositives": 5975,
      "ĠprÃ©fÃ©rence": 5976,
      "ĠnÃ©cessi": 5977,
      "fs": 5978,
      "get": 5979,
      "amma": 5980,
      "Ġattach": 5981,
      "ĠutilisÃ©e": 5982,
      "Ġconseilles": 5983,
      "ĠðŁĮĬ": 5984,
      "Ġdiriez": 5985,
      "Ġfascinantes": 5986,
      "Ġinconn": 5987,
      "inqui": 5988,
      "âĢľ": 5989,
      "Ġimplique": 5990,
      "Ġprofessionnelles": 5991,
      "ĠreprÃ©sente": 5992,
      "Ġaccords": 5993,
      "Ġcollabor": 5994,
      "Ġgaran": 5995,
      "ograph": 5996,
      "ĠGÃ©n": 5997,
      "Ġclasse": 5998,
      "ĠrÃ©guliÃ¨res": 5999,
      "Ã©chelle": 6000,
      "artiste": 6001,
      "Ġfortes": 6002,
      "empathie": 6003,
      "right": 6004,
      "ĠTr": 6005,
      "Ġsemaines": 6006,
      "ĠrÃ©centes": 6007,
      "ĠÃ©trangÃ¨re": 6008,
      "Ġweb": 6009,
      "Ġbalades": 6010,
      "orizon": 6011,
      "vÃ©nients": 6012,
      "Ġexpositions": 6013,
      "Ġpouvais": 6014,
      "interface": 6015,
      "ĠÃītats": 6016,
      "Ġtalent": 6017,
      "Ġ)": 6018,
      "Ġsing": 6019,
      "Ġtransmettre": 6020,
      "Ġstimuler": 6021,
      "ĠcohÃ©rence": 6022,
      "heure": 6023,
      "Ġ.": 6024,
      "ĠExemple": 6025,
      "Ġcaptivant": 6026,
      "ĠEh": 6027,
      "ĠPl": 6028,
      "Ġcoord": 6029,
      "Ġracont": 6030,
      "Ã©ritage": 6031,
      "intÃ©grer": 6032,
      "Ġcorrectement": 6033,
      "ĠÃ©norme": 6034,
      "Ġcarbone": 6035,
      "Ġblues": 6036,
      "24": 6037,
      "ile": 6038,
      "Ġfoie": 6039,
      "ĠdÃ©placer": 6040,
      "ĠreflÃ¨": 6041,
      "Ġopinion": 6042,
      "Or": 6043,
      "Ġlequel": 6044,
      "ĠLors": 6045,
      "ĠâĶ": 6046,
      "accÃ¨s": 6047,
      "Ġconcentration": 6048,
      "Ãīt": 6049,
      "ĠthÃ©orique": 6050,
      "Ġmultitude": 6051,
      "Ġpertinente": 6052,
      "Ġpou": 6053,
      "Ġmiroir": 6054,
      "endus": 6055,
      "alu": 6056,
      "ĠMod": 6057,
      "Ġentoure": 6058,
      "ĠreconnaÃ®tre": 6059,
      "Ġconvain": 6060,
      "ĠmÃ©dicale": 6061,
      "dictions": 6062,
      "ĠîĪĥ": 6063,
      "ĠbibliothÃ¨": 6064,
      "Ġmembres": 6065,
      "otique": 6066,
      "thÃ©": 6067,
      "estim": 6068,
      "Ġvues": 6069,
      "Ã´les": 6070,
      "Ġtraditionnelles": 6071,
      "ĠChois": 6072,
      "assistant": 6073,
      "entretien": 6074,
      "Ġintrig": 6075,
      "ĠrÃ©confor": 6076,
      "TA": 6077,
      "ĠSch": 6078,
      "Ġtient": 6079,
      "ĠsÃ©ance": 6080,
      "alimentation": 6081,
      "Ġscript": 6082,
      "ĠZ": 6083,
      "Ġcarte": 6084,
      "ĠspÃ©ciale": 6085,
      "ĠðŁĶ¹": 6086,
      "Ġneurones": 6087,
      "^\\": 6088,
      "Ġvolontiers": 6089,
      "exc": 6090,
      "Ġdonnerais": 6091,
      "ĠthÃ©rap": 6092,
      "ĠsÃ©ances": 6093,
      "îĪĦ": 6094,
      "ĠidÃ©al": 6095,
      "Ġsimilaires": 6096,
      "ĠrÃ©silience": 6097,
      "annÃ©e": 6098,
      "Ġtop": 6099,
      "ĠutilisÃ©s": 6100,
      "ĠrÃ©ponds": 6101,
      "ĠdÃ©pendance": 6102,
      "ĠconsidÃ©rer": 6103,
      "Ġfacteurs": 6104,
      "Ġfavoris": 6105,
      "Ġpaisible": 6106,
      "Ġaffecter": 6107,
      "left": 6108,
      "Ġcroissance": 6109,
      "bar": 6110,
      "sements": 6111,
      "âĢĵ": 6112,
      "Ġmondi": 6113,
      "Ġexposition": 6114,
      "ĠÃ©motionnels": 6115,
      "Ġindividuels": 6116,
      "Ġoccup": 6117,
      "ĠmystÃ©ri": 6118,
      "ĠprÃªte": 6119,
      "Ġattendre": 6120,
      "Ġutilisent": 6121,
      "Ġutilisateur": 6122,
      "Ġcapables": 6123,
      "ĠprÃ©senter": 6124,
      "Ġpopulaires": 6125,
      "ĠinconvÃ©nients": 6126,
      "ft": 6127,
      "Ġcapture": 6128,
      "Ã¢teau": 6129,
      "ĠrÃªves": 6130,
      "ĠsuccÃ¨s": 6131,
      "Ġfichiers": 6132,
      "ĠtempÃ©ra": 6133,
      "Ġdos": 6134,
      "inform": 6135,
      "onnements": 6136,
      "Ġparfaite": 6137,
      "ĠprÃ©fÃ©rez": 6138,
      "Ġsources": 6139,
      "Ġfavoriser": 6140,
      "con": 6141,
      "fl": 6142,
      "Ġgraphique": 6143,
      "Ġsud": 6144,
      "ĠðŁĲ±": 6145,
      "aÃ®tr": 6146,
      "Ġpassionnants": 6147,
      "Ġterminer": 6148,
      "ĠDidier": 6149,
      "armonie": 6150,
      "ĠprÃ©occupations": 6151,
      "Ch": 6152,
      "prop": 6153,
      "ĠSelon": 6154,
      "Ġarm": 6155,
      "ĠcrÃ©ative": 6156,
      "Ġski": 6157,
      "Ġtenir": 6158,
      "ðŁį": 6159,
      "ĠcrÃ¨me": 6160,
      "Ġalbum": 6161,
      "Ġbrill": 6162,
      "Ġenvironnemental": 6163,
      "vention": 6164,
      "Ġsain": 6165,
      "ĠLeur": 6166,
      "rÃ©es": 6167,
      "attÃ©n": 6168,
      "Ġnote": 6169,
      "ĠnÃ©gatif": 6170,
      "ĠrÃªve": 6171,
      "Ġsignificative": 6172,
      "Ġchaleure": 6173,
      "Ġaventure": 6174,
      "Madame": 6175,
      "ĠprÃ©cieuses": 6176,
      "tru": 6177,
      "Ġarriv": 6178,
      "Ġpartout": 6179,
      "ĠrÃ©aliste": 6180,
      "Ġaffecte": 6181,
      "ergence": 6182,
      "engagement": 6183,
      "Dame": 6184,
      "Ġpati": 6185,
      "Ãªter": 6186,
      "dire": 6187,
      "ĠcompÃ©ti": 6188,
      "Ġeffec": 6189,
      "Ġconsta": 6190,
      "ES": 6191,
      "toire": 6192,
      "Ġcat": 6193,
      "Ġtendances": 6194,
      "ĠgÃ©nÃ©rations": 6195,
      "Ġnotion": 6196,
      "Ġengage": 6197,
      "Ġgentil": 6198,
      "ĠdÃ©sir": 6199,
      "ĠÃ©mer": 6200,
      "outant": 6201,
      "Ġindividuelles": 6202,
      "Ġpopulation": 6203,
      "Ġsecrets": 6204,
      "Ġanglais": 6205,
      "arger": 6206,
      "Ġintui": 6207,
      "Ġseras": 6208,
      "Ġoffrant": 6209,
      "Ġsaveur": 6210,
      "Ġfemme": 6211,
      "rayant": 6212,
      "Ġsauvages": 6213,
      "gamma": 6214,
      "ener": 6215,
      "Ġjeune": 6216,
      "ĠprÃ©server": 6217,
      "ĠSaint": 6218,
      "Ġdig": 6219,
      "Ġ(\\": 6220,
      "Ġconcrets": 6221,
      "Ġinterface": 6222,
      "Ġconsciente": 6223,
      "Ġenvisages": 6224,
      "âľ": 6225,
      "Ġveu": 6226,
      "ĠEuropÃ©": 6227,
      "riques": 6228,
      "Ġancien": 6229,
      "Ġmaxim": 6230,
      "Ġagir": 6231,
      "Ġroute": 6232,
      "ĠtestÃ©": 6233,
      "ĠðŁ¤Ĺ": 6234,
      "artistes": 6235,
      "Ġsuivi": 6236,
      "ĠrÃ©volutionnaire": 6237,
      "Ġdevenu": 6238,
      "Ã©pendance": 6239,
      "ĠcÃ©lÃ©brer": 6240,
      "Ġten": 6241,
      "Ġbran": 6242,
      "Ġbatt": 6243,
      "Ġcaract": 6244,
      "ĠðŁĮ²": 6245,
      "Ġinclure": 6246,
      "ravo": 6247,
      "ĠrÃ©aliser": 6248,
      "Ġrisque": 6249,
      "ĠvÃ©ritÃ©": 6250,
      "oss": 6251,
      "Ġarrive": 6252,
      "cipl": 6253,
      "ĠsociÃ©tÃ©s": 6254,
      "Ġreconstruction": 6255,
      "enticitÃ©": 6256,
      "Ġjourn": 6257,
      "ĠGr": 6258,
      "Ġlargement": 6259,
      "Ġimpatient": 6260,
      "Ġparten": 6261,
      "oll": 6262,
      "Ġattentes": 6263,
      "Ġarticles": 6264,
      "ĠrÃ©cits": 6265,
      "ĠsensibilitÃ©": 6266,
      "ĠprÃ©voir": 6267,
      "esses": 6268,
      "ĠdÃ©crire": 6269,
      "ĠrÃ¨gne": 6270,
      "ĠcollÃ¨gues": 6271,
      "innovation": 6272,
      "ourg": 6273,
      "ĠapprÃ©cie": 6274,
      "entreprise": 6275,
      "ĠJulie": 6276,
      "gÃ©": 6277,
      "gner": 6278,
      "ensible": 6279,
      "Ġfix": 6280,
      "Ġrecul": 6281,
      "appar": 6282,
      "nies": 6283,
      "Ġphysiquement": 6284,
      "olontÃ©": 6285,
      "amÃ©lioration": 6286,
      "Ġrayon": 6287,
      "ribu": 6288,
      ")\\)": 6289,
      "Ce": 6290,
      "Ġve": 6291,
      "ĠprÃ©cieuse": 6292,
      "tements": 6293,
      "ĠâĪ": 6294,
      "Ġsolides": 6295,
      "ĠatmosphÃ¨re": 6296,
      "Ġrenouv": 6297,
      "ĠavancÃ©e": 6298,
      "Ġcherchais": 6299,
      "Ġrestaurant": 6300,
      "Ar": 6301,
      "Ġbout": 6302,
      "Ġplais": 6303,
      "Ġintim": 6304,
      "Ġapprenant": 6305,
      "range": 6306,
      "Ġimpliqu": 6307,
      "Ġcomprom": 6308,
      "Ġfasse": 6309,
      "Ġinfluences": 6310,
      "Ġfonctionn": 6311,
      "ĠeuropÃ©en": 6312,
      "Ġpromener": 6313,
      "Ġfaible": 6314,
      "Ġsurmonter": 6315,
      "DF": 6316,
      "entrÃ©e": 6317,
      "agram": 6318,
      "intÃ©ri": 6319,
      "Inter": 6320,
      "Ġprogressive": 6321,
      ".).": 6322,
      "Ġx": 6323,
      "Ã¨ses": 6324,
      "fices": 6325,
      "ĠAm": 6326,
      "Ġcourses": 6327,
      "Ġimpression": 6328,
      "Ġplonger": 6329,
      "Ġmentionn": 6330,
      "Ġchaleur": 6331,
      "attÃ©nue": 6332,
      "lation": 6333,
      "ĠvolontÃ©": 6334,
      "Ġhaut": 6335,
      "ersonn": 6336,
      "Ġmeilleurs": 6337,
      "trate": 6338,
      "ĠprÃ©cise": 6339,
      "Ġpermettant": 6340,
      "Ġpotentiellement": 6341,
      ">,": 6342,
      "AD": 6343,
      "Am": 6344,
      "Ġdescrip": 6345,
      "Ġpren": 6346,
      "ĠdÃ©crit": 6347,
      "Ġinstitu": 6348,
      "Ġintrigue": 6349,
      "Ġfondamentale": 6350,
      "Ġentreprises": 6351,
      "otion": 6352,
      "Ġmort": 6353,
      "leur": 6354,
      "ĠforÃªts": 6355,
      "Ġfonctions": 6356,
      "Ġressent": 6357,
      "ĠbasÃ©e": 6358,
      "illages": 6359,
      "Ġterrain": 6360,
      "ĠðŁįĥ": 6361,
      "Ġpuissance": 6362,
      "midi": 6363,
      "Ġfractal": 6364,
      "Ġajoute": 6365,
      "ĠrÃ©conforte": 6366,
      "cie": 6367,
      "Ġorigines": 6368,
      "Ġauthentique": 6369,
      "lons": 6370,
      "Ġaper": 6371,
      "isu": 6372,
      "ĠVeux": 6373,
      "Ġpassionnent": 6374,
      "ĠopÃ©ra": 6375,
      "Ġlutte": 6376,
      "Ġstructur": 6377,
      "Ġprofessionnels": 6378,
      "Ġimmense": 6379,
      "ximitÃ©": 6380,
      "opportunitÃ©": 6381,
      "Ġfestiv": 6382,
      "Ġsains": 6383,
      "ĠmaÃ®tr": 6384,
      "arning": 6385,
      "Ġlead": 6386,
      "Ġdimin": 6387,
      "Ġamic": 6388,
      "Ġâī": 6389,
      "ĠðŁĮ³": 6390,
      "remment": 6391,
      "ĠassistÃ©": 6392,
      "ĠdÃ©fini": 6393,
      "Ã©change": 6394,
      "Ġprogramm": 6395,
      "Ġguider": 6396,
      "Ġsorties": 6397,
      "ĠChoisir": 6398,
      "erv": 6399,
      "anci": 6400,
      "Ġgu": 6401,
      "itÃ©e": 6402,
      "Ġforc": 6403,
      "Ġgramm": 6404,
      "ĠðŁĮ»": 6405,
      "Ġapproches": 6406,
      "Ġsurpris": 6407,
      "Ġalternatives": 6408,
      "ĠcaractÃ©ristiques": 6409,
      "Qu": 6410,
      "Ġ&": 6411,
      "Ġintelle": 6412,
      "ĠðŁ¦ī": 6413,
      "eth": 6414,
      "abulaire": 6415,
      "ĠallÃ©e": 6416,
      "Ġsolid": 6417,
      "ĠcoÃ»": 6418,
      "Ġsecond": 6419,
      "ospec": 6420,
      "ĠTa": 6421,
      "ĠproximitÃ©": 6422,
      "Ġstock": 6423,
      "intÃ©ress": 6424,
      "Ġviol": 6425,
      "Ġvalor": 6426,
      "ĠprÃ©sentation": 6427,
      "Ã©cr": 6428,
      "rier": 6429,
      "ards": 6430,
      "ĠÃ©tab": 6431,
      "Ġauto": 6432,
      "exist": 6433,
      "Ġstable": 6434,
      "ĠspÃ©ciales": 6435,
      "Ġpromet": 6436,
      "Ġperformance": 6437,
      "łï¸ı": 6438,
      "ogni": 6439,
      "ĠÃ©tablir": 6440,
      "Ġtraditionnel": 6441,
      "Ġprochains": 6442,
      "ĠrÃ©duction": 6443,
      "ĠsuggÃ¨re": 6444,
      "Ġfaciles": 6445,
      "ĠentraÃ®nement": 6446,
      "intÃ©rieur": 6447,
      "ly": 6448,
      "arc": 6449,
      "ĠTe": 6450,
      "Ġparticules": 6451,
      "ĠðŁĶ§": 6452,
      "Ġpur": 6453,
      "Ġane": 6454,
      "ĠTensorFlow": 6455,
      "ĠðŁİ¯": 6456,
      "Ġexpliques": 6457,
      "iff": 6458,
      "rations": 6459,
      "Ã¨ces": 6460,
      "essage": 6461,
      "ĠRome": 6462,
      "Ġjustice": 6463,
      "Ġconfron": 6464,
      "Ġcombats": 6465,
      "ĠrandonnÃ©es": 6466,
      "Ġrisques": 6467,
      "ĠcaractÃ¨re": 6468,
      "eb": 6469,
      "ĠpÃ¨re": 6470,
      "ĠPrÃ©s": 6471,
      "Ã©crire": 6472,
      "culp": 6473,
      "Ġnotes": 6474,
      "ĠAnalyse": 6475,
      "Ġchaleureuse": 6476,
      "sin": 6477,
      "ouille": 6478,
      "pro": 6479,
      "mpli": 6480,
      "agnÃ©tique": 6481,
      "Ġfron": 6482,
      "ĠvÃ©hi": 6483,
      "Ġconduit": 6484,
      "Ġraisons": 6485,
      "Ġincontourn": 6486,
      "Ġcyc": 6487,
      "espoir": 6488,
      "instant": 6489,
      "ignes": 6490,
      "ĠaffectÃ©": 6491,
      "ĠsimplicitÃ©": 6492,
      "Ġajout": 6493,
      "ouette": 6494,
      "Ġgraph": 6495,
      "ouvrir": 6496,
      "Ġchaos": 6497,
      "Ġspati": 6498,
      "ĠliÃ©es": 6499,
      "Ġnaz": 6500,
      "Ġbless": 6501,
      "Ġstructurer": 6502,
      "respons": 6503,
      "Ġfromages": 6504,
      "Ġcombattre": 6505,
      "Ġexpressions": 6506,
      "Ġpat": 6507,
      "Ġajus": 6508,
      "Ġneu": 6509,
      "Ġbate": 6510,
      "ĠconÃ§": 6511,
      "ĠDu": 6512,
      "ðŁĺ": 6513,
      "Ġarts": 6514,
      "Ġoblig": 6515,
      "Ġvoyez": 6516,
      "Ġfroi": 6517,
      "Ġprincipalement": 6518,
      "Ġcentre": 6519,
      "Ġnarra": 6520,
      "ĠthÃ©ories": 6521,
      "ĠsÃ»rement": 6522,
      "Ġmettent": 6523,
      "xiÃ©tÃ©": 6524,
      "TI": 6525,
      "âĺ": 6526,
      "inten": 6527,
      "uisant": 6528,
      "Ġapplication": 6529,
      "Ġterr": 6530,
      "ĠdÃ©pas": 6531,
      "Ġorganisations": 6532,
      "sibilitÃ©": 6533,
      "Ġenrichissantes": 6534,
      "ĠidÃ©ale": 6535,
      "Ġguerriers": 6536,
      "Ġvocabulaire": 6537,
      "Ġveulent": 6538,
      "Ġpatri": 6539,
      "ĠCl": 6540,
      "ĠBravo": 6541,
      "truire": 6542,
      "ĠRÃ©": 6543,
      "Ġterri": 6544,
      "Ġfront": 6545,
      "ĠðŁĺģ": 6546,
      "Ġvisualisation": 6547,
      "Ġconstruit": 6548,
      "Ġespagn": 6549,
      "atrice": 6550,
      "Ġfigures": 6551,
      "ĠgÃ©niale": 6552,
      "ismes": 6553,
      "ĠgÃ¨res": 6554,
      "ĠMo": 6555,
      "auff": 6556,
      "Ġinves": 6557,
      "dient": 6558,
      "ĠmÃ©rite": 6559,
      "Ġaccessibles": 6560,
      "Ġdisponible": 6561,
      "Ġsacs": 6562,
      "ront": 6563,
      "Ġcancer": 6564,
      "Ġsculp": 6565,
      "Ġtoucher": 6566,
      "Ã©moire": 6567,
      "Ġressourcer": 6568,
      "ĠprÃ©parÃ©": 6569,
      "Ġitalienne": 6570,
      "'s": 6571,
      "15": 6572,
      "ĠfÃªte": 6573,
      "opÃ©ra": 6574,
      "ĠÃ©volue": 6575,
      "appelles": 6576,
      "Ġregarde": 6577,
      "Ġrapides": 6578,
      "Ġpuissante": 6579,
      "ĠmystÃ¨re": 6580,
      "ĠComprends": 6581,
      "Ġcre": 6582,
      "leurs": 6583,
      "tÃ©g": 6584,
      "cules": 6585,
      "ĠcrÃª": 6586,
      "Ġtourner": 6587,
      "Ġlimiter": 6588,
      "Ġfinir": 6589,
      "Ġadapt": 6590,
      "Ġbataille": 6591,
      "Ġsensibiliser": 6592,
      "Ġcollective": 6593,
      "ĠThings": 6594,
      "Ġautonome": 6595,
      "juster": 6596,
      "Ġillus": 6597,
      "Ġintuition": 6598,
      "ĠIdÃ©": 6599,
      "Ġexpos": 6600,
      "ĠPourriez": 6601,
      "Ã©cole": 6602,
      "Ġvisites": 6603,
      "ĠÃ©coles": 6604,
      "importe": 6605,
      "Ġzone": 6606,
      "ĠmodÃ©liser": 6607,
      "Ġcourageux": 6608,
      "Ġrem": 6609,
      "dio": 6610,
      "entiel": 6611,
      "otation": 6612,
      "Ã©vÃ©": 6613,
      "Ġjouent": 6614,
      "Ġclari": 6615,
      "Ġorganisation": 6616,
      "attend": 6617,
      "ĠimpressionnÃ©": 6618,
      "Ġmajeure": 6619,
      "Ġnuances": 6620,
      "anxiÃ©tÃ©": 6621,
      "Ã´tel": 6622,
      "Ã¢me": 6623,
      "ĠprÃ©cisÃ©ment": 6624,
      "ĠðŁĺĮ": 6625,
      "oscill": 6626,
      "Ġoriginal": 6627,
      "ĠÃ©tudiants": 6628,
      "horizon": 6629,
      "Ã©lectri": 6630,
      "illÃ©": 6631,
      "ĠðŁĻĤ": 6632,
      "Ġmanif": 6633,
      "ĠintÃ©grÃ©": 6634,
      "ĠdiffÃ©": 6635,
      "Ġaimer": 6636,
      "Ġnaturelles": 6637,
      "ĠconsidÃ©rÃ©": 6638,
      "Ġplateformes": 6639,
      "Com": 6640,
      "reg": 6641,
      "illon": 6642,
      "ĠplanÃ¨tes": 6643,
      "ĠrÃ©sultat": 6644,
      "aissent": 6645,
      "artier": 6646,
      "ĠsupplÃ©mentaire": 6647,
      "Ġchefs": 6648,
      "Ġcalculs": 6649,
      "Ġcombinaison": 6650,
      "ĠterminÃ©": 6651,
      "Ã©criture": 6652,
      "aÃ¯": 6653,
      "antique": 6654,
      "uri": 6655,
      "Ġprim": 6656,
      "Ġparall": 6657,
      "Ġsup": 6658,
      "ĠSes": 6659,
      "Ġarr": 6660,
      "Ġmodule": 6661,
      "ĠcÃ©lÃ¨bres": 6662,
      "Ġmutuel": 6663,
      "Ġemploy": 6664,
      "ĠdiffÃ©remment": 6665,
      "ice": 6666,
      "Ġaies": 6667,
      "Ġfo": 6668,
      "ĠprÃ©cises": 6669,
      "Ġfinanci": 6670,
      "ĠprÃ©venir": 6671,
      "Ġvaste": 6672,
      "ĠCommence": 6673,
      "Ġsuffisamment": 6674,
      "ĠEuropÃ©enne": 6675,
      "ĠaperÃ§u": 6676,
      "^{\\": 6677,
      "ĠmÃª": 6678,
      "Ġparad": 6679,
      "usage": 6680,
      "--|": 6681,
      "Ġseraient": 6682,
      "Ġtests": 6683,
      "Ã©tudier": 6684,
      "000": 6685,
      "essaye": 6686,
      "ĠnÃ©cessitÃ©": 6687,
      "engager": 6688,
      "Ġinternationales": 6689,
      "embauche": 6690,
      "âľ¨": 6691,
      "}\\)": 6692,
      "onance": 6693,
      "Ġtent": 6694,
      "inon": 6695,
      "intr": 6696,
      "Ġroi": 6697,
      "encour": 6698,
      "otiques": 6699,
      "ĠRÃ©p": 6700,
      "Ġriz": 6701,
      "Ġfondamentales": 6702,
      "Ġordre": 6703,
      "Ġoriginale": 6704,
      "Ġcosm": 6705,
      "intrigue": 6706,
      "PU": 6707,
      "ueur": 6708,
      "Ġplans": 6709,
      "Ġbeaux": 6710,
      "Ġdevoir": 6711,
      "Ġdonnent": 6712,
      "Ġboucle": 6713,
      "Ġdivertissement": 6714,
      "Ġinspirer": 6715,
      "Ġboulevers": 6716,
      "Ġidentifier": 6717,
      "Ġartistiques": 6718,
      "cus": 6719,
      "itaire": 6720,
      "Ġtravaille": 6721,
      "tration": 6722,
      "Åĵu": 6723,
      "ĠrÃ©pu": 6724,
      "ĠgÃ©omÃ©trie": 6725,
      "ĠPrÃ©sente": 6726,
      "atement": 6727,
      "}(": 6728,
      "ĠleÃ§": 6729,
      "Ġher": 6730,
      "Ġpremiers": 6731,
      "Ġfaisait": 6732,
      "ĠeuropÃ©ens": 6733,
      "ĠmodifiÃ©": 6734,
      "ĠpropriÃ©tÃ©s": 6735,
      "19": 6736,
      "Ġlignes": 6737,
      "ðŁĶ": 6738,
      "Ġpost": 6739,
      "Ġvouloir": 6740,
      "ĠrÃªv": 6741,
      "ĠsoirÃ©e": 6742,
      "ĠrÃ©volutionnÃ©": 6743,
      "ĠrÃ©union": 6744,
      "Ġaccomplir": 6745,
      "Ġfestival": 6746,
      "Ġquartier": 6747,
      "lever": 6748,
      "avi": 6749,
      "Ġamie": 6750,
      "Ġamoureux": 6751,
      "Ġfit": 6752,
      "Ġbeur": 6753,
      "aujourd": 6754,
      "Ġtransformation": 6755,
      "Ġconsommer": 6756,
      "Ġstandard": 6757,
      "llama": 6758,
      "Ġplanification": 6759,
      "Ġtotalement": 6760,
      "aventure": 6761,
      "ĠforcÃ©ment": 6762,
      "ormes": 6763,
      "Ġgaz": 6764,
      "ĠMont": 6765,
      "fiÃ©s": 6766,
      "adopter": 6767,
      "Ġclasses": 6768,
      "Ġuniquement": 6769,
      "ĠpassÃ©es": 6770,
      "ĠÃ©lectriques": 6771,
      "king": 6772,
      "py": 6773,
      "entropie": 6774,
      "Ġvert": 6775,
      "Ġbud": 6776,
      "ĠPrÃ©": 6777,
      "Ġhors": 6778,
      "îĪĨ": 6779,
      "approche": 6780,
      "ĠsuggÃ¨res": 6781,
      "ĠimprÃ©v": 6782,
      "cÃ©": 6783,
      "tiss": 6784,
      "arrive": 6785,
      "Ġanciens": 6786,
      "ĠÃ©mis": 6787,
      "Ġcuisson": 6788,
      "Ġoffici": 6789,
      "Ġstressant": 6790,
      "indus": 6791,
      "Ġstrate": 6792,
      "effort": 6793,
      "ĠintriguÃ©": 6794,
      "ision": 6795,
      "imm": 6796,
      "Ã©mergence": 6797,
      "Ġtouris": 6798,
      "Ġrappellent": 6799,
      "ĠmÃ©taph": 6800,
      "ĠInst": 6801,
      "Ġengagement": 6802,
      "Ġaiment": 6803,
      "lectron": 6804,
      "Ġprogrammes": 6805,
      "ĠrÃ©unions": 6806,
      "Re": 6807,
      "anou": 6808,
      "ast": 6809,
      "avance": 6810,
      "oint": 6811,
      "ĠlÃ©ger": 6812,
      "ĠamÃ©liore": 6813,
      "Ġmalad": 6814,
      "ĠsÃ©jour": 6815,
      "Ġperformances": 6816,
      "Ġmorceaux": 6817,
      "Ġbeurre": 6818,
      "MA": 6819,
      "Ġvide": 6820,
      "Ġfortement": 6821,
      "Ġsurprises": 6822,
      "Ġuniversel": 6823,
      "ĠmÃ©canique": 6824,
      "Ġpousser": 6825,
      "ĠsolidaritÃ©": 6826,
      "tou": 6827,
      "Ġmira": 6828,
      "itaires": 6829,
      "acci": 6830,
      "Ġavions": 6831,
      "abs": 6832,
      "ĠNotre": 6833,
      "Ġremarqu": 6834,
      "Ġapaisante": 6835,
      "Ġgravitationnelle": 6836,
      "Ġcompromis": 6837,
      "orce": 6838,
      "ours": 6839,
      "Ġinjus": 6840,
      "Ġsurch": 6841,
      "Ġaccr": 6842,
      "Ġattend": 6843,
      "Ġproposes": 6844,
      "Ġinnovations": 6845,
      "ĠphÃ©nomÃ¨ne": 6846,
      "Ġsortie": 6847,
      "identitÃ©": 6848,
      "histoires": 6849,
      "tit": 6850,
      "entrer": 6851,
      "raction": 6852,
      "trer": 6853,
      "Ġabord": 6854,
      "ĠEnfin": 6855,
      "verse": 6856,
      "mettre": 6857,
      "allages": 6858,
      "Ġutilisateurs": 6859,
      "ĠmontrÃ©": 6860,
      "joute": 6861,
      "ĠrÃ©cents": 6862,
      "Ġincl": 6863,
      "Ġcombine": 6864,
      "ĠconstatÃ©": 6865,
      "log": 6866,
      "magne": 6867,
      "Ġmange": 6868,
      "ity": 6869,
      "net": 6870,
      "ĠhÃ©ritage": 6871,
      "ĠQuelques": 6872,
      "ĠÃ©tais": 6873,
      "Ġconven": 6874,
      "ĠsoulÃ¨": 6875,
      "ĠChac": 6876,
      "Ġobservation": 6877,
      "apprÃ©cierais": 6878,
      "ĠcrÃªpes": 6879,
      "back": 6880,
      "Ġlour": 6881,
      "ree": 6882,
      "Ġsh": 6883,
      "ĠmÃªmes": 6884,
      "Ġimpos": 6885,
      "image": 6886,
      "utation": 6887,
      "Ġexplique": 6888,
      "aborder": 6889,
      "humain": 6890,
      "Ġinitiative": 6891,
      "ĠrÃ©volutionnaires": 6892,
      "occupe": 6893,
      "ĠdÃ©ch": 6894,
      "ĠrÃ©gal": 6895,
      "issante": 6896,
      "Ġcombiner": 6897,
      "ĠcomprÃ©hensible": 6898,
      "adaptation": 6899,
      "veillance": 6900,
      "sui": 6901,
      "Ġvec": 6902,
      "Ġnations": 6903,
      "prÃ©s": 6904,
      "ĠMac": 6905,
      "Ġitin": 6906,
      "uisent": 6907,
      "ĠgÃ©nÃ©tique": 6908,
      "ĠmÃ©trique": 6909,
      "ĠcommunautÃ©s": 6910,
      "Ġsuffit": 6911,
      "Ġsouhaitez": 6912,
      "ĠâīĪ": 6913,
      ".îĪĦ": 6914,
      "side": 6915,
      "Ġign": 6916,
      "Ġpartagent": 6917,
      "--------------------------------": 6918,
      "Ġcoordination": 6919,
      "Ġul": 6920,
      "Ġpure": 6921,
      "Ġlait": 6922,
      "orique": 6923,
      "ĠOoh": 6924,
      "auth": 6925,
      "Ġrevoir": 6926,
      "ĠÃ©pices": 6927,
      "Ġcosmos": 6928,
      "Ġmutuelle": 6929,
      "Ġintelligent": 6930,
      "Ġjournal": 6931,
      "}_{\\": 6932,
      "¡ï¸ı": 6933,
      "Ġparoles": 6934,
      "Ġcourt": 6935,
      "Ġsouten": 6936,
      "Ġtrajets": 6937,
      "Ġheure": 6938,
      "ĠcafÃ©s": 6939,
      "Ġcritiques": 6940,
      "ĠrafraÃ®chissant": 6941,
      "cositÃ©": 6942,
      "message": 6943,
      "Ġinuti": 6944,
      "ĠLouis": 6945,
      "oins": 6946,
      "Ã©ric": 6947,
      "paravant": 6948,
      "Ġfeuilles": 6949,
      "Ġappelle": 6950,
      "ĠAujourd": 6951,
      "veiller": 6952,
      "Ġmusicales": 6953,
      "Ġcampagnes": 6954,
      "Ġdimensionn": 6955,
      "Ġfuturs": 6956,
      "FD": 6957,
      "ereur": 6958,
      "iend": 6959,
      "mente": 6960,
      "tage": 6961,
      "Ġsert": 6962,
      "ust": 6963,
      "Ġplastiques": 6964,
      "Ġcompare": 6965,
      "llemagne": 6966,
      "ĠAjouter": 6967,
      "ĠAvant": 6968,
      "Ġexcit": 6969,
      "Ġessaie": 6970,
      "ĠprÃ©cision": 6971,
      "Ġnouvel": 6972,
      "Ġcade": 6973,
      "Ġbio": 6974,
      "ĠÃ©chelle": 6975,
      "ĠtempÃ©rature": 6976,
      "Ġbateau": 6977,
      "Ġpatrim": 6978,
      "sch": 6979,
      "zz": 6980,
      "Ġportes": 6981,
      "Ġafin": 6982,
      "Ġsalle": 6983,
      "ĠðŁļ": 6984,
      "Ġperte": 6985,
      "Ġagit": 6986,
      "ĠpartagÃ©s": 6987,
      "Ġhoraires": 6988,
      "Ġturbulence": 6989,
      "ĠLorsque": 6990,
      "Ġvou": 6991,
      "ĠEspagne": 6992,
      "fiÃ©es": 6993,
      "Ġdisent": 6994,
      "ĠÃ©tonn": 6995,
      "Ġrendez": 6996,
      "ĠcohÃ©rente": 6997,
      "Ġenviron": 6998,
      "Ġenseignants": 6999,
      "animaux": 7000,
      "ĠtÃ©moi": 7001,
      "Ġinstitutions": 7002,
      "Ġpatrimoine": 7003,
      "Ġu": 7004,
      "Ġsaines": 7005,
      "Ġauparavant": 7006,
      "ĠÃ©lÃ©ment": 7007,
      "serve": 7008,
      "Ġmondes": 7009,
      "Ġanti": 7010,
      "Ġentreprise": 7011,
      "ĠÃ©vent": 7012,
      "Ġsensations": 7013,
      "Ġromantique": 7014,
      "Ġconnexions": 7015,
      "Ġtraitements": 7016,
      "omega": 7017,
      "Ġsombre": 7018,
      "uni": 7019,
      "itent": 7020,
      "iew": 7021,
      "atat": 7022,
      "Ã©rir": 7023,
      "Ġatta": 7024,
      "Ġstric": 7025,
      "Ġaffect": 7026,
      "Ġappropri": 7027,
      "Ġplupart": 7028,
      "Ġgravitationn": 7029,
      "Ġuniverselle": 7030,
      "Ġenvironnements": 7031,
      "Ġgarantir": 7032,
      "Ġbudget": 7033,
      "Ġrotation": 7034,
      "ender": 7035,
      "ĠCrÃ©er": 7036,
      "ĠVal": 7037,
      "ĠÃ©toile": 7038,
      "ĠtouchÃ©e": 7039,
      "Ġcouleur": 7040,
      "Ã©lectricitÃ©": 7041,
      "non": 7042,
      "Ã©der": 7043,
      "Ġport": 7044,
      "anti": 7045,
      "Ġconver": 7046,
      "usÃ©e": 7047,
      "ĠutilisÃ©es": 7048,
      "Ġdirait": 7049,
      "ĠprÃ©sente": 7050,
      "Ġlisant": 7051,
      "Ġbatailles": 7052,
      "interprÃ©tation": 7053,
      "Ġself": 7054,
      "Ġrenouvela": 7055,
      "existence": 7056,
      "))": 7057,
      "denti": 7058,
      "ureux": 7059,
      "Ġem": 7060,
      "ĠrÃ©server": 7061,
      "Ġexcep": 7062,
      "Ã©conomie": 7063,
      "ĠÃ©motionnelles": 7064,
      "appa": 7065,
      "Ġcoop": 7066,
      "Ġpublique": 7067,
      "Ġressemb": 7068,
      "Ġculturels": 7069,
      "Ġsouffrance": 7070,
      "fois": 7071,
      "kappa": 7072,
      "oritÃ©": 7073,
      "ĠrÃ´les": 7074,
      "aluer": 7075,
      "Ġexces": 7076,
      "Ġdevait": 7077,
      "Ġcharm": 7078,
      "ĠSud": 7079,
      "Ġchaud": 7080,
      "Ġvisuel": 7081,
      "Ġmodifier": 7082,
      "Ġapaisant": 7083,
      "ĠÃ©pisodes": 7084,
      "dimensionn": 7085,
      "origine": 7086,
      "intensitÃ©": 7087,
      "bure": 7088,
      "ball": 7089,
      "gle": 7090,
      "ystÃ¨me": 7091,
      "Ġloi": 7092,
      "ory": 7093,
      "Ġaura": 7094,
      "ĠparaÃ®t": 7095,
      "ĠJapon": 7096,
      "immer": 7097,
      "Ġaccue": 7098,
      "Ġchangent": 7099,
      "Ġclandes": 7100,
      "ravitÃ©": 7101,
      "Ġlogici": 7102,
      "Ġisol": 7103,
      "opportunitÃ©s": 7104,
      "ĠpÃ¢tes": 7105,
      "ĠcontrÃ´ler": 7106,
      "tiÃ¨res": 7107,
      "Ġpourra": 7108,
      "iennes": 7109,
      "riger": 7110,
      "oints": 7111,
      "Ġtoile": 7112,
      "overs": 7113,
      "ĠvariÃ©": 7114,
      "Ġcontac": 7115,
      "Ġtouchante": 7116,
      "Ġouvrir": 7117,
      "ĠentraÃ®ner": 7118,
      "Ġtempore": 7119,
      "ĠsuggÃ©rer": 7120,
      "Ġgardant": 7121,
      "Ġrespectueux": 7122,
      "ĠnÃ©cessitent": 7123,
      "inquiÃ¨te": 7124,
      "los": 7125,
      "sans": 7126,
      "intention": 7127,
      "Ġfen": 7128,
      "urant": 7129,
      "Ġ?\"": 7130,
      "culer": 7131,
      "fiction": 7132,
      "Ġmarcher": 7133,
      "Ġcouplage": 7134,
      "ĠprioritÃ©": 7135,
      "ĠentiÃ¨rement": 7136,
      "Ġcitron": 7137,
      "Ġsimilaire": 7138,
      "Ġinattendues": 7139,
      "Ġpollution": 7140,
      "rou": 7141,
      "ysique": 7142,
      "outs": 7143,
      "ĠextÃ©rieur": 7144,
      "ĠParlons": 7145,
      "Ġdisais": 7146,
      "Ġexper": 7147,
      "ĠsÃ©par": 7148,
      "Ġimmer": 7149,
      "Ġpanor": 7150,
      "Ġcapturer": 7151,
      "Ġplaisent": 7152,
      "Ġfoot": 7153,
      "Ġherbes": 7154,
      ",\\": 7155,
      "Notre": 7156,
      "Ġ9": 7157,
      "Ġtenter": 7158,
      "ĠrÃ©action": 7159,
      "ĠPlus": 7160,
      "Ã©th": 7161,
      "stac": 7162,
      "Åĵil": 7163,
      "Ġretrouv": 7164,
      "Ġbrut": 7165,
      "stein": 7166,
      "const": 7167,
      "Ã¨gre": 7168,
      "ĠdÃ©marche": 7169,
      "Ġpeuples": 7170,
      "oques": 7171,
      "argent": 7172,
      "Ġpoursui": 7173,
      "Ġchoc": 7174,
      "ĠItalie": 7175,
      "Ã©ro": 7176,
      "Ġanc": 7177,
      "Ġcolor": 7178,
      "Ġraff": 7179,
      "ĠconnectÃ©": 7180,
      "Ġhaute": 7181,
      "Â«": 7182,
      "quelles": 7183,
      "inves": 7184,
      "Ġmesures": 7185,
      "ĠengagÃ©": 7186,
      "Ġrenforce": 7187,
      "Ġcaptivante": 7188,
      "Ġgravitationnel": 7189,
      "ctuellement": 7190,
      "industrie": 7191,
      "!!": 7192,
      "man": 7193,
      "Ġlistes": 7194,
      "instein": 7195,
      "ester": 7196,
      "Ġsuit": 7197,
      "ĠVan": 7198,
      "Ġconseille": 7199,
      "Ġaimons": 7200,
      "Ġinspire": 7201,
      "enseign": 7202,
      "îĪĤ": 7203,
      "Ġgouvernements": 7204,
      "ĠimmÃ©diatement": 7205,
      "ĠscÃ©narios": 7206,
      "ĠbibliothÃ¨que": 7207,
      "Ġeffectu": 7208,
      "Lambda": 7209,
      "Ġriv": 7210,
      "Ġgagner": 7211,
      "ĠCV": 7212,
      "ĠOb": 7213,
      "ĠBeau": 7214,
      "trui": 7215,
      "ĠAppr": 7216,
      "Ã©tablir": 7217,
      "ails": 7218,
      "Ġfaits": 7219,
      "Ġeffort": 7220,
      "Ġusage": 7221,
      "ĠPro": 7222,
      "ĠnÃ©glig": 7223,
      "Ġsubtil": 7224,
      "Ġpoign": 7225,
      "Ġintroduit": 7226,
      "Ġpistes": 7227,
      "initi": 7228,
      "otype": 7229,
      "Ġvisible": 7230,
      "ĠÃ©co": 7231,
      "Ġinstru": 7232,
      "ĠdÃ©bu": 7233,
      "Ġenvironnementale": 7234,
      "ĠâĿĮ": 7235,
      "Ġsignal": 7236,
      "Ġfaibles": 7237,
      "ĠÃ©clai": 7238,
      "ĠfidÃ¨le": 7239,
      "Mod": 7240,
      "hor": 7241,
      "say": 7242,
      "Ġram": 7243,
      "atures": 7244,
      "ĠdÃ©taillÃ©e": 7245,
      "lissement": 7246,
      "Ġadorer": 7247,
      "interrog": 7248,
      "Ġchaleureux": 7249,
      "ĠperÃ§ois": 7250,
      "ĠreflÃ¨te": 7251,
      "Ġ...": 7252,
      "orie": 7253,
      "sel": 7254,
      "prime": 7255,
      "ĠrÃ©per": 7256,
      "Ġbienven": 7257,
      "Ġrevanche": 7258,
      "culation": 7259,
      "ĠlimitÃ©": 7260,
      "Ġconstant": 7261,
      "Ġcontrovers": 7262,
      "ĠentitÃ©": 7263,
      "Ġdistribu": 7264,
      "Ġalternative": 7265,
      "Ġinteractif": 7266,
      "ĠÃ©pisode": 7267,
      "UE": 7268,
      "dis": 7269,
      "inv": 7270,
      "oies": 7271,
      "Ġenfin": 7272,
      "Ġsein": 7273,
      "Ġmotiver": 7274,
      "ĠrÃ©fÃ©rence": 7275,
      "ĠConc": 7276,
      "Ġferait": 7277,
      "Ġvivent": 7278,
      "Ġmodules": 7279,
      "turn": 7280,
      "ĠCertaines": 7281,
      "ĠcÃ©lÃ©b": 7282,
      "ĠlinÃ©aire": 7283,
      "Ġtragique": 7284,
      "toires": 7285,
      "uy": 7286,
      "Ĥ¬": 7287,
      "Ġvent": 7288,
      "Ġinestim": 7289,
      "Ġexam": 7290,
      "Ġoubli": 7291,
      "Ġdiscipl": 7292,
      "ĠgÃ©nÃ¨re": 7293,
      "Ġconsul": 7294,
      "Ġvoyons": 7295,
      "ractions": 7296,
      "Ġenfant": 7297,
      "Orsay": 7298,
      "Ġpartenaire": 7299,
      "cation": 7300,
      "mÃ¨re": 7301,
      "âĪ": 7302,
      "Ġpousse": 7303,
      "Ġvs": 7304,
      "Ġdessert": 7305,
      "Ġchante": 7306,
      "Ġrequ": 7307,
      "Ġconnus": 7308,
      "Ġformule": 7309,
      "udo": 7310,
      "offrir": 7311,
      "lambda": 7312,
      "urr": 7313,
      "Ġtraite": 7314,
      "rivain": 7315,
      "Ã©rences": 7316,
      "ĠdÃ©fendre": 7317,
      "ĠðŁĮĮ": 7318,
      "ĠContin": 7319,
      "Ġsigne": 7320,
      "ĠrÃ©gulier": 7321,
      "Ġmajest": 7322,
      "Ġpassage": 7323,
      "Ġinternationale": 7324,
      "ĠfraÃ®che": 7325,
      "Ġentourage": 7326,
      "Ġjuge": 7327,
      "ĠfrÃ©quence": 7328,
      "dÃ©e": 7329,
      "ĠtÃ´t": 7330,
      "chauff": 7331,
      "cid": 7332,
      "Ġconserv": 7333,
      "âĢĳ": 7334,
      "ĠPy": 7335,
      "Ġimpliquer": 7336,
      "Ġimplications": 7337,
      "Ġindus": 7338,
      "cours": 7339,
      "ĠbÃ©nÃ©fices": 7340,
      "ormÃ©ment": 7341,
      "Ġtouchent": 7342,
      "ĠreprÃ©senter": 7343,
      "ĠtraitÃ©": 7344,
      "informer": 7345,
      "Ġaccueill": 7346,
      "pte": 7347,
      "entends": 7348,
      "ĠrÃ©side": 7349,
      "Ã©rance": 7350,
      "rante": 7351,
      "ĠdÃ©cen": 7352,
      "Ġconsac": 7353,
      "Ġproposition": 7354,
      "Ġsauce": 7355,
      "Unis": 7356,
      "ĠsincÃ¨re": 7357,
      "Ã©vÃ©nements": 7358,
      "onie": 7359,
      "Ġcop": 7360,
      "Ġquant": 7361,
      "Ġjoy": 7362,
      "ĠreÃ§": 7363,
      "ĠexÃ©cu": 7364,
      "ĠÃ©merve": 7365,
      "Ã©cl": 7366,
      "ĠRob": 7367,
      "ĠbasÃ©s": 7368,
      "ĠstructurÃ©e": 7369,
      "ĠsupÃ©ri": 7370,
      "Ġpanoram": 7371,
      "50": 7372,
      "beta": 7373,
      "lÃ©es": 7374,
      "Ã©cuter": 7375,
      "Ġpommes": 7376,
      "tile": 7377,
      "Ġrej": 7378,
      "ĠrÃ©elles": 7379,
      "lige": 7380,
      "Ġtouches": 7381,
      "Ã©raire": 7382,
      "Ġacteurs": 7383,
      "ĠintÃ©resse": 7384,
      "Ġanalog": 7385,
      "agnÃ©": 7386,
      "ĠgoÃ»tÃ©": 7387,
      "ĠpassÃ©s": 7388,
      "Ġapprofondie": 7389,
      "ĠdÃ©termination": 7390,
      "ĠmystÃ©rieux": 7391,
      "atatouille": 7392,
      "Emp": 7393,
      "mul": 7394,
      "ĠMusÃ©e": 7395,
      "ĠdÃ©bor": 7396,
      "ĠrÃ©duit": 7397,
      "ĠspÃ©cialisÃ©s": 7398,
      "Ġsavoureux": 7399,
      "Ġmillions": 7400,
      "Ġâŀ¡ï¸ı": 7401,
      "nis": 7402,
      "Ġjol": 7403,
      "rales": 7404,
      "Ġbre": 7405,
      "chÃ©s": 7406,
      "ouss": 7407,
      "ĠImp": 7408,
      "ogh": 7409,
      "Ġamoureuse": 7410,
      "Ġcommer": 7411,
      "Ġpartages": 7412,
      "Ġtirer": 7413,
      "ouverture": 7414,
      "ĠrÃ©pÃ©ti": 7415,
      "Ġbiais": 7416,
      "humour": 7417,
      "ĠÃ©du": 7418,
      "Ġfavorise": 7419,
      "Ġfondamental": 7420,
      "ĠÃ©mouvante": 7421,
      "ĠÃ©normÃ©ment": 7422,
      "ĠmatÃ©riel": 7423,
      "Ġpoisson": 7424,
      "Ġmauvais": 7425,
      "ĠinÃ©galitÃ©s": 7426,
      "Ġnaviguer": 7427,
      "Ġordinateurs": 7428,
      "Ġvoulu": 7429,
      "Une": 7430,
      "matiques": 7431,
      "artÃ©": 7432,
      "ĠrÃ©par": 7433,
      "ĠrÃ©els": 7434,
      "ĠhÃ©ros": 7435,
      "ignements": 7436,
      "ĠmÃ©tÃ©": 7437,
      "ĠGogh": 7438,
      "ĠÃ©criv": 7439,
      "ĠvÃ©los": 7440,
      "ĠhypothÃ¨ses": 7441,
      "Ġintimid": 7442,
      "Ġfitness": 7443,
      "raire": 7444,
      "ild": 7445,
      "Ġnet": 7446,
      "rad": 7447,
      "Ġjeter": 7448,
      "Ġsite": 7449,
      "Ġcompati": 7450,
      "lÃ©ter": 7451,
      "ĠdÃ©taillÃ©": 7452,
      "apprends": 7453,
      "Ġinteragir": 7454,
      "Ġvivons": 7455,
      "uves": 7456,
      "Ġviande": 7457,
      "Ġmoral": 7458,
      "book": 7459,
      "Ãītat": 7460,
      "Ou": 7461,
      "venir": 7462,
      "Ã©lectr": 7463,
      "ores": 7464,
      "Ġvins": 7465,
      "Ġviennent": 7466,
      "Ġfour": 7467,
      "Ġnerv": 7468,
      "Ġprennent": 7469,
      "ĠdÃ©riv": 7470,
      "accep": 7471,
      "Ġeffective": 7472,
      "Ġutilises": 7473,
      "Ġtrajet": 7474,
      "ĠQueen": 7475,
      "Ġlongues": 7476,
      "Ġformat": 7477,
      "Ġreprod": 7478,
      "alyser": 7479,
      "Ġproposent": 7480,
      "ðŁĮŁ": 7481,
      "occupant": 7482,
      "Ġbalance": 7483,
      "Ġprogresser": 7484,
      "ĠdÃ©routant": 7485,
      "ĠdÃ©licate": 7486,
      "Ġattachants": 7487,
      "Ġleaders": 7488,
      "ĠÃ©missions": 7489,
      "Sim": 7490,
      "oÃ¹": 7491,
      "work": 7492,
      "Ġplait": 7493,
      "ĠAge": 7494,
      "Ġcontemporains": 7495,
      "Ã©tudes": 7496,
      "ĠsimulÃ©e": 7497,
      "UI": 7498,
      "aw": 7499,
      "rection": 7500,
      "ĠTrai": 7501,
      "ĠDav": 7502,
      "ellente": 7503,
      "application": 7504,
      "Ġhumeur": 7505,
      "ĠindÃ©pend": 7506,
      "Ġfini": 7507,
      "ĠÃ©quilibrer": 7508,
      "tisme": 7509,
      "ĠstratÃ©gique": 7510,
      "Ġopinions": 7511,
      "Ġintellec": 7512,
      "Ġclu": 7513,
      "ĠqualitÃ©s": 7514,
      "Ġvul": 7515,
      "Ġboire": 7516,
      "ĠrÃ©forme": 7517,
      "atte": 7518,
      "Ġactes": 7519,
      "Ġmarrant": 7520,
      "Ġconviv": 7521,
      "Ġposs": 7522,
      "Ġadapter": 7523,
      "ĠadaptÃ©s": 7524,
      "Ġdocuments": 7525,
      "cussions": 7526,
      "Ġajuster": 7527,
      "iso": 7528,
      "Ġfier": 7529,
      "agation": 7530,
      "tumes": 7531,
      "onnÃ©es": 7532,
      "Ġ-\\": 7533,
      "Ġcoeur": 7534,
      "Ġassurer": 7535,
      "âĢĿ**": 7536,
      "LaMA": 7537,
      "Ġsusp": 7538,
      "ĠÃ®le": 7539,
      "regis": 7540,
      "authenticitÃ©": 7541,
      "ĠcoopÃ©ration": 7542,
      "Ã©ler": 7543,
      "Ġposes": 7544,
      "Ġvect": 7545,
      "ĠMes": 7546,
      "tuelles": 7547,
      "Ġinvent": 7548,
      "Ġexter": 7549,
      "Ã©rant": 7550,
      "ĠApp": 7551,
      "Ġjoueurs": 7552,
      "Ġinclu": 7553,
      "Ġwith": 7554,
      "Ġinspirante": 7555,
      "Ġnarration": 7556,
      "hÃ©rence": 7557,
      "ĠconnectÃ©s": 7558,
      "ĠprotÃ©ines": 7559,
      "ĠmodÃ©lisation": 7560,
      "Ġabstrait": 7561,
      "ĠÃ©vident": 7562,
      "ĠFranÃ§ais": 7563,
      "Ġpattern": 7564,
      "ĠsoulÃ¨ve": 7565,
      "Ġbe": 7566,
      "Ġblo": 7567,
      "Ġrech": 7568,
      "Ġinvis": 7569,
      "Ġapprends": 7570,
      "Ġmotive": 7571,
      "aborer": 7572,
      "Ġconcret": 7573,
      "Ġtraverser": 7574,
      "ĠMonet": 7575,
      "ĠnÃ©gative": 7576,
      "Ġchacune": 7577,
      "Ġprochainement": 7578,
      "Ġoptimiser": 7579,
      "FT": 7580,
      "mande": 7581,
      "Ġdorm": 7582,
      "unitÃ©": 7583,
      "ĠdÃ©di": 7584,
      "ĠPe": 7585,
      "Ġprofil": 7586,
      "ĠdÃ©licieuses": 7587,
      "Ġemballages": 7588,
      "onnecter": 7589,
      "Ġlinguistique": 7590,
      "isualisation": 7591,
      "ĠContinue": 7592,
      "Ġindustri": 7593,
      "Phi": 7594,
      "ry": 7595,
      "search": 7596,
      "Ġgour": 7597,
      "Ġintime": 7598,
      "ĠPer": 7599,
      "ĠhÃ´tel": 7600,
      "ĠTes": 7601,
      "cure": 7602,
      "atti": 7603,
      "fite": 7604,
      "ĠpremiÃ¨res": 7605,
      "ĠschÃ©ma": 7606,
      "Ġimagination": 7607,
      "Ġassistant": 7608,
      "Ġcognitif": 7609,
      "Ġsauvage": 7610,
      "Ġpsychologique": 7611,
      "Ġayant": 7612,
      "Si": 7613,
      "Strate": 7614,
      "\\),": 7615,
      "asion": 7616,
      "ierre": 7617,
      "âģ": 7618,
      "Ġrass": 7619,
      "ĠCFD": 7620,
      "Ġparait": 7621,
      "ĠdÃ©st": 7622,
      "accueil": 7623,
      "ĠTatin": 7624,
      "entielle": 7625,
      "optimisation": 7626,
      "Ġavance": 7627,
      "ĠÃ©coute": 7628,
      "tructures": 7629,
      "Ġatouts": 7630,
      "Ġproduire": 7631,
      "ĠlibertÃ©s": 7632,
      "conscience": 7633,
      "Ġpeuple": 7634,
      "aies": 7635,
      "Ġfleurs": 7636,
      "estr": 7637,
      "Ġconqu": 7638,
      "actu": 7639,
      "-----|": 7640,
      "ĠAss": 7641,
      "oyez": 7642,
      "Ġobstac": 7643,
      "ilier": 7644,
      "Ã©quilibrer": 7645,
      "Ġallemand": 7646,
      "ĠÃ©tudiÃ©": 7647,
      "Ġfigure": 7648,
      "ĠÃ©levÃ©": 7649,
      "Ġjudi": 7650,
      "ĠtÃ©lÃ©ph": 7651,
      "Ġexige": 7652,
      "Ġmaladie": 7653,
      "Ġax": 7654,
      "Ġtaille": 7655,
      "Ġvig": 7656,
      "old": 7657,
      "ĠrÃ©chauff": 7658,
      "Ġhier": 7659,
      "apprÃ©h": 7660,
      "Ġpouvaient": 7661,
      "endrait": 7662,
      "Ġjaponaise": 7663,
      "Ġpieds": 7664,
      "ĠdÃ©mocratie": 7665,
      "):": 7666,
      "dre": 7667,
      "ä¸": 7668,
      "Ġ]": 7669,
      "Ġgau": 7670,
      "Ġprix": 7671,
      "liers": 7672,
      "ĠAPI": 7673,
      "Ġauxquels": 7674,
      "agnos": 7675,
      "Ġvivaient": 7676,
      "ovas": 7677,
      "individus": 7678,
      "Ġcruciale": 7679,
      "ĠmÃ©langer": 7680,
      "Analyse": 7681,
      "Ġmultip": 7682,
      "sifs": 7683,
      "Ġcollaboration": 7684,
      "ĠdÃ©cennies": 7685,
      "Pour": 7686,
      "Psi": 7687,
      "Te": 7688,
      "UM": 7689,
      "atu": 7690,
      "orp": 7691,
      "Ġverre": 7692,
      "Ġvrais": 7693,
      "Ġenj": 7694,
      "chron": 7695,
      "agents": 7696,
      "olat": 7697,
      "Ġappren": 7698,
      "ĠrÃ©ag": 7699,
      "Ġtri": 7700,
      "ogle": 7701,
      "raires": 7702,
      "Ġexcur": 7703,
      "Ġdevaient": 7704,
      "Ġmuscles": 7705,
      "iversitÃ©": 7706,
      "Ã©die": 7707,
      "Ġstressante": 7708,
      "ĠÃ©motionnellement": 7709,
      "Ġcardiovas": 7710,
      "Ġprogressivement": 7711,
      "ospection": 7712,
      "outil": 7713,
      "Ġvont": 7714,
      "Ġgal": 7715,
      "itable": 7716,
      "ĠSans": 7717,
      "ĠRavi": 7718,
      "Ġgrandi": 7719,
      "Ġtravaillent": 7720,
      "Ġrecycl": 7721,
      "Ġradic": 7722,
      "Ġnaturellement": 7723,
      "ĠDieu": 7724,
      "iÃ¨me": 7725,
      "Ġpain": 7726,
      "lions": 7727,
      "ĠLy": 7728,
      "Ġvisualiser": 7729,
      "Ġaucune": 7730,
      "ĠÃ©thique": 7731,
      "ĠIdÃ©al": 7732,
      "oniques": 7733,
      "Ġfol": 7734,
      "ĠComb": 7735,
      "Ġtriste": 7736,
      "ĠActuellement": 7737,
      "Ġtiens": 7738,
      "ĠtravaillÃ©": 7739,
      "ĠexplorÃ©": 7740,
      "ceptions": 7741,
      "ĠamÃ©liorÃ©": 7742,
      "indÃ©pendance": 7743,
      "Ġinspirantes": 7744,
      "Ġfamiliaux": 7745,
      "Ġinnovant": 7746,
      "Ġanciennes": 7747,
      "Ġgrammaire": 7748,
      "Ġclarifier": 7749,
      "Stranger": 7750,
      "cis": 7751,
      "Ġiss": 7752,
      "Ġtom": 7753,
      "orient": 7754,
      "ĠrÃ©actions": 7755,
      "Ġhob": 7756,
      "ĠgÃ©nÃ©rÃ©": 7757,
      "autom": 7758,
      "ĠâĤ¬": 7759,
      "ĠthÃ©matique": 7760,
      "Ġtournant": 7761,
      "ĠvÃ©gÃ©tar": 7762,
      "Ġpuissent": 7763,
      "ĠÃ©ducation": 7764,
      "plus": 7765,
      "ĠcohÃ©rent": 7766,
      "ĠExcellente": 7767,
      "ĠdifficultÃ©": 7768,
      "ĠfacilitÃ©": 7769,
      "intÃ©ressent": 7770,
      "sc": 7771,
      "Ġacheter": 7772,
      "Ġres": 7773,
      "Ġrup": 7774,
      "sig": 7775,
      "ĠCar": 7776,
      "tÃ©r": 7777,
      "ðŁĵ": 7778,
      "Ġcommentaires": 7779,
      "ĠcrÃ©ant": 7780,
      "Ġseront": 7781,
      "ĠrÃ©gular": 7782,
      "Ġdouleur": 7783,
      "ocker": 7784,
      "Ġvisuelle": 7785,
      "Ġcivils": 7786,
      "ĠðŁļĢ": 7787,
      "onacci": 7788,
      "Ġsort": 7789,
      "iritu": 7790,
      "onnex": 7791,
      "ĠNet": 7792,
      "ĠFaire": 7793,
      "ĠGe": 7794,
      "Ġdomin": 7795,
      "Ġcommunes": 7796,
      "Ġconfir": 7797,
      "hip": 7798,
      "via": 7799,
      "ĠÃ©lÃ©g": 7800,
      "ĠdÃ©cider": 7801,
      "Ġsignaux": 7802,
      "Ġanecdot": 7803,
      "ĠChacun": 7804,
      "sant": 7805,
      "ende": 7806,
      "Ġlearning": 7807,
      "augment": 7808,
      "Ġremer": 7809,
      "ĠrÃ©utilis": 7810,
      "inement": 7811,
      "ĠAI": 7812,
      "adÃ©m": 7813,
      "ĠmaniÃ¨res": 7814,
      "Ġcherchez": 7815,
      "Ġtechnologiques": 7816,
      "Ġmises": 7817,
      "habitude": 7818,
      "Ġnational": 7819,
      "Ġlinguistiques": 7820,
      "Ġencourageant": 7821,
      "ĠfenÃªtre": 7822,
      "Ġanecdotes": 7823,
      "Ġremercie": 7824,
      "pour": 7825,
      "Ġbure": 7826,
      "ĠCons": 7827,
      "ĠrÃ©serv": 7828,
      "ĠÃ©pous": 7829,
      "Ġfonctionner": 7830,
      "ĠdemandÃ©": 7831,
      "Ġenvironnementaux": 7832,
      "Ġmajeurs": 7833,
      "Ġsecteur": 7834,
      "ĠgÃ©omÃ©t": 7835,
      "Ġsouhaiterais": 7836,
      "aluation": 7837,
      "ĠrÃªvÃ©": 7838,
      "ĠrÃ©percussions": 7839,
      "ty": 7840,
      "Ã¶": 7841,
      "Ġdestr": 7842,
      "Ġfe": 7843,
      "aisons": 7844,
      "Ġcontient": 7845,
      "ĠOÃ¹": 7846,
      "Ġarmes": 7847,
      "Ġcalend": 7848,
      "ĠjournÃ©es": 7849,
      "Ġconnaissez": 7850,
      "Ġformer": 7851,
      "thÃ¨se": 7852,
      "Ġresponsables": 7853,
      "Ġpromenades": 7854,
      "ĠappelÃ©": 7855,
      "motion": 7856,
      "aÃ¯l": 7857,
      "Ġfootball": 7858,
      "14": 7859,
      "ronter": 7860,
      "Ġalig": 7861,
      "ĠdÃ©cr": 7862,
      "Ġreform": 7863,
      "ection": 7864,
      "Ġspiritu": 7865,
      "Ġpeine": 7866,
      "ĠprÃ©fÃ©rer": 7867,
      "ĠÃ©poques": 7868,
      "hÃ©sitez": 7869,
      "ĠðŁĶ¥": 7870,
      "Ġenrichit": 7871,
      "ĠIntÃ©g": 7872,
      "Ġchevalier": 7873,
      "ĠRÃ©sult": 7874,
      "^{-": 7875,
      "imaginer": 7876,
      "ĠÃ©lectrom": 7877,
      "ĠÃ©thiques": 7878,
      "ĠCorse": 7879,
      "ĠsingularitÃ©": 7880,
      "ME": 7881,
      "Ġade": 7882,
      "Ġtap": 7883,
      "Ġnour": 7884,
      "ask": 7885,
      "Ġint": 7886,
      "anglais": 7887,
      "Ġsph": 7888,
      "appel": 7889,
      "Ġfinalement": 7890,
      "ĠmodifiÃ©e": 7891,
      "Ġrelaxation": 7892,
      "accompagner": 7893,
      "ĠÃ®les": 7894,
      "Ġtennis": 7895,
      "ĠparallÃ¨le": 7896,
      "Ġaffectent": 7897,
      "ĠConclusion": 7898,
      "ging": 7899,
      "honn": 7900,
      "oquer": 7901,
      "âĤ": 7902,
      "Ġendurance": 7903,
      "Ġrelig": 7904,
      "tÃ©gor": 7905,
      "Ġsurface": 7906,
      "ðŁĳ": 7907,
      "ĠAd": 7908,
      "Ġimagine": 7909,
      "Ã©puis": 7910,
      "------------": 7911,
      "ĠhÃ©si": 7912,
      "ĠorganisÃ©e": 7913,
      "Ġcombatt": 7914,
      "Ġprincipe": 7915,
      "Ġenvisage": 7916,
      "Ġcorrespondent": 7917,
      "ĠtombÃ©": 7918,
      "Ġhybri": 7919,
      "Ġ179": 7920,
      "oyaume": 7921,
      "ĠthÃ©rapie": 7922,
      "Ġdescription": 7923,
      "Ġbureau": 7924,
      "12": 7925,
      "ï¼": 7926,
      "ĠLang": 7927,
      "irations": 7928,
      "ight": 7929,
      "Ġdeviennent": 7930,
      "Ġprofesse": 7931,
      "Ġoffert": 7932,
      "Ġchem": 7933,
      "Ġsavent": 7934,
      "Ġcommuns": 7935,
      "Ġcontemporaine": 7936,
      "Ġdivertiss": 7937,
      "Ġproduction": 7938,
      "ibonacci": 7939,
      "Ġpertinents": 7940,
      "ĠÃītape": 7941,
      "Ġdossier": 7942,
      "Ouest": 7943,
      ".âĢĿ": 7944,
      "ding": 7945,
      "we": 7946,
      "sives": 7947,
      "aus": 7948,
      "Ġlesquelles": 7949,
      "ĠSur": 7950,
      "apit": 7951,
      "umer": 7952,
      "ĠPourrait": 7953,
      "ĠbasÃ©es": 7954,
      "Ġsentiers": 7955,
      "Ã©quations": 7956,
      "Ġreposer": 7957,
      "ĠdÃ©lice": 7958,
      "ĠðŁ§ª": 7959,
      "Ġcentres": 7960,
      "ĠdÃ©gus": 7961,
      "ĠmÃ©dical": 7962,
      "Ġdistinc": 7963,
      "Ġcontinuent": 7964,
      "ĠinterprÃ©ter": 7965,
      "Ġfrustr": 7966,
      "Ġambiti": 7967,
      "ĠÃ©poustou": 7968,
      "Est": 7969,
      "Ġcouche": 7970,
      "Ġvoire": 7971,
      "ĠOllama": 7972,
      "Ġdiagnos": 7973,
      "Ġarticle": 7974,
      "tines": 7975,
      "ĠÃ©crivain": 7976,
      "ĠclartÃ©": 7977,
      "ĠChar": 7978,
      "compr": 7979,
      "efforce": 7980,
      "Ġcirconst": 7981,
      "Ġcauses": 7982,
      "Ġfaciliter": 7983,
      "Ġparadox": 7984,
      "rement": 7985,
      "unk": 7986,
      "oite": 7987,
      "ĠtrÃ©s": 7988,
      "Ã©taient": 7989,
      "ĠÃªtres": 7990,
      "Ġmusiciens": 7991,
      "Ġindividuel": 7992,
      "interagir": 7993,
      "ĠrÃ©guliers": 7994,
      "ĠdurÃ©e": 7995,
      "Ġsensibilisation": 7996,
      "Ġtomber": 7997,
      "ĠitinÃ©raire": 7998,
      "OTA": 7999,
      "crire": 8000,
      "guer": 8001,
      "structure": 8002,
      "çļ": 8003,
      "Ġqua": 8004,
      "ĠCo": 8005,
      "ĠÃ©tions": 8006,
      "ĠPor": 8007,
      "trop": 8008,
      "ĠacadÃ©m": 8009,
      "Ġconsiste": 8010,
      "issons": 8011,
      "Ġappare": 8012,
      "Ġverts": 8013,
      "Ġfaisons": 8014,
      "Ġinconsci": 8015,
      "ĠefficacitÃ©": 8016,
      "Ġthermod": 8017,
      "ĠprÃ©vois": 8018,
      "ĠcommenÃ§ant": 8019,
      "Ġracontent": 8020,
      "cs": 8021,
      "Ġnaissance": 8022,
      "Ġback": 8023,
      "ĠrÃ©comp": 8024,
      "autonomie": 8025,
      "Ġann": 8026,
      "olume": 8027,
      "ĠHum": 8028,
      "ĠdrÃ´le": 8029,
      "Ġphilosophiques": 8030,
      "Ġparlait": 8031,
      "Ġrespecte": 8032,
      "ĠÃ©lectrique": 8033,
      "çļĦ": 8034,
      "18": 8035,
      "harmonie": 8036,
      "Ġcell": 8037,
      "Ġsons": 8038,
      "Ġratatouille": 8039,
      "agog": 8040,
      "rige": 8041,
      "amus": 8042,
      "Ġlive": 8043,
      "Ġallant": 8044,
      "Ġconnues": 8045,
      "ĠdÃ©fense": 8046,
      "Ġplanning": 8047,
      "Ġfinal": 8048,
      "Ġvaccin": 8049,
      "ĠportÃ©e": 8050,
      "inclure": 8051,
      "Ġsubtiles": 8052,
      "Ġrural": 8053,
      "ĠscÃ©nario": 8054,
      "ĠfrontiÃ¨res": 8055,
      "responsables": 8056,
      "Ġadepte": 8057,
      "gal": 8058,
      "war": 8059,
      "quations": 8060,
      "ĠmÃ¨re": 8061,
      "incer": 8062,
      "Ġrues": 8063,
      "aude": 8064,
      "ĠrÃ©di": 8065,
      "Ġdipl": 8066,
      "istral": 8067,
      "Ġaccueil": 8068,
      "hÃ©sion": 8069,
      "Ġ15": 8070,
      "ĠcatÃ©gor": 8071,
      "Ġinterag": 8072,
      "Ġ30": 8073,
      "Ġcentral": 8074,
      "emotion": 8075,
      "approcher": 8076,
      "ĠÃ©lectronique": 8077,
      "dt": 8078,
      "Ġoscill": 8079,
      "isent": 8080,
      "Ġroy": 8081,
      "ĠgÃ¢teau": 8082,
      "ĠPersonn": 8083,
      "ĠmÃ©lod": 8084,
      "Ġconfigu": 8085,
      "Ġagend": 8086,
      "timitÃ©": 8087,
      "Ġurbain": 8088,
      "ĠsynthÃ©": 8089,
      "Ġtrucs": 8090,
      "propto": 8091,
      "\")": 8092,
      "Elle": 8093,
      "ĠcÃ©rÃ©": 8094,
      "Ġtar": 8095,
      "ares": 8096,
      "rÃ©p": 8097,
      "ĠSe": 8098,
      "expÃ©riment": 8099,
      "Ġcoder": 8100,
      "Ġmagie": 8101,
      "ĠðŁ§©": 8102,
      "Ġcontextes": 8103,
      "ĠÃ©trange": 8104,
      "Ġchampign": 8105,
      "Ġrigoureuse": 8106,
      "Ġmettant": 8107,
      "Ġprometteur": 8108,
      "sent": 8109,
      "asp": 8110,
      "auteur": 8111,
      "Ġlesquels": 8112,
      "acces": 8113,
      "Ġimpli": 8114,
      "Ġattendant": 8115,
      "ĠviscositÃ©": 8116,
      "ĠdÃ©passe": 8117,
      "Ġdemandes": 8118,
      "jection": 8119,
      "âĢĿ.": 8120,
      "ĠcausÃ©": 8121,
      "entraÃ®ner": 8122,
      "oubliez": 8123,
      "Ġfixer": 8124,
      "Ġcirconstances": 8125,
      "Ġlanc": 8126,
      "Ġjug": 8127,
      "ĠrÃ©agir": 8128,
      "option": 8129,
      "Ġdiscours": 8130,
      "Ġsymph": 8131,
      "Ġobservations": 8132,
      "Ġinternet": 8133,
      "ĠmÃ©morables": 8134,
      "ĠmÃ©can": 8135,
      "isolement": 8136,
      "Comp": 8137,
      "amp": 8138,
      "Ġsente": 8139,
      "ansion": 8140,
      "tier": 8141,
      "ĠvoilÃł": 8142,
      "Ġprud": 8143,
      "ĠimplÃ©ment": 8144,
      "Ġrespirer": 8145,
      "ĠspÃ©cialement": 8146,
      "Ġcentrale": 8147,
      "ĠpÃ©dagog": 8148,
      "ĠÃ©conomiser": 8149,
      "Ġadorable": 8150,
      "Ġdiminuer": 8151,
      "pÃ¨re": 8152,
      "ĠPic": 8153,
      "ĠprÃ©dictions": 8154,
      "Ġcommerci": 8155,
      "Ġmaintien": 8156,
      "Ġstatis": 8157,
      "Ġcourantes": 8158,
      "Ġutilisons": 8159,
      "Ġcompagnon": 8160,
      "Ġinattendus": 8161,
      "ĠCertes": 8162,
      "Ġfractales": 8163,
      "Ġsacri": 8164,
      "ĠComprendre": 8165,
      "Ġpatients": 8166,
      "Ġpoursuivre": 8167,
      "Ġrupture": 8168,
      "tise": 8169,
      "liques": 8170,
      "optim": 8171,
      "adm": 8172,
      "essence": 8173,
      "Ġdevraient": 8174,
      "Ġsoul": 8175,
      "Ġformuler": 8176,
      "ĠsÃ©rieux": 8177,
      "Ġfondamentaux": 8178,
      "Ġcontribution": 8179,
      "Ġautomatiquement": 8180,
      "ðŁĴĽ": 8181,
      "ĠnÃ©gliger": 8182,
      "OTAN": 8183,
      ".*": 8184,
      "})": 8185,
      "quÃ©e": 8186,
      "Ġmorts": 8187,
      "Ġconserver": 8188,
      "ativ": 8189,
      "Ġchev": 8190,
      "Ġenvironnementales": 8191,
      "Ġpensent": 8192,
      "Ġsubj": 8193,
      "vision": 8194,
      "ĠÃ©nergies": 8195,
      "ĠdÃ©roul": 8196,
      "Ġaccepter": 8197,
      "ĠGoogle": 8198,
      "Ġmauvaise": 8199,
      "Mira": 8200,
      "lot": 8201,
      "linÃ©": 8202,
      "mÃ©e": 8203,
      "ĠmÃ¨ne": 8204,
      "Ġrasse": 8205,
      "Ġprenant": 8206,
      "ommage": 8207,
      "ĠdÃ©tour": 8208,
      "Ġperp": 8209,
      "Ġdoul": 8210,
      "Ġconstruc": 8211,
      "tinc": 8212,
      "Ġvoyag": 8213,
      "Ġrecevoir": 8214,
      "atta": 8215,
      "Ġbiod": 8216,
      "ĠnÃ©cessairement": 8217,
      "ĠdÃ©placement": 8218,
      "ĠquantitÃ©s": 8219,
      "archie": 8220,
      "Ġminimiser": 8221,
      "Ġfatigue": 8222,
      "ĠrÃ©cupÃ©ration": 8223,
      "Ġpoulet": 8224,
      "Ġfrontend": 8225,
      "Ġdanger": 8226,
      "Ġnp": 8227,
      "allÃ©": 8228,
      "ĠdÃ©cris": 8229,
      "Ġharmon": 8230,
      "ulations": 8231,
      "ĠperÃ§u": 8232,
      "itudes": 8233,
      "ĠrÃ©sonance": 8234,
      "Ġstation": 8235,
      "ĠparticuliÃ¨res": 8236,
      "Ġconcentre": 8237,
      "aculaires": 8238,
      "Ġfacettes": 8239,
      "Ġphilosophique": 8240,
      "retagne": 8241,
      "ĠlittÃ©raire": 8242,
      "Ġspectaculaires": 8243,
      "ĠUtiliser": 8244,
      "ĠSimulation": 8245,
      "Ġincontournable": 8246,
      "atteindre": 8247,
      "ey": 8248,
      "Ġcrain": 8249,
      "Ġsortes": 8250,
      "tices": 8251,
      "Ġfun": 8252,
      "Ġnomm": 8253,
      "ĠLond": 8254,
      "terre": 8255,
      "rÃ©f": 8256,
      "diques": 8257,
      "trans": 8258,
      "Ġsolaires": 8259,
      "ĠindÃ©ni": 8260,
      "Ġphysi": 8261,
      "huile": 8262,
      "Ãªtres": 8263,
      "Ġrouge": 8264,
      "Ġincar": 8265,
      "Ġprompt": 8266,
      "ĠPrendre": 8267,
      "Ãīquation": 8268,
      "ĠadaptÃ©": 8269,
      "Ġcitoyen": 8270,
      "Ġsentent": 8271,
      "Ġraisonnement": 8272,
      "Ġexistence": 8273,
      "Ġ$\\": 8274,
      "Ġremplacer": 8275,
      "ĠÃ©crits": 8276,
      "Ġâļłï¸ı": 8277,
      "âĶĢâĶĢâĶĢâĶĢâĶĢâĶĢâĶĢâĶĢâĶĢâĶĢâĶĢâĶĢâĶĢâĶĢâĶĢâĶĢ": 8278,
      "Ġterrit": 8279,
      "ðŁĳĢ": 8280,
      "cl": 8281,
      "neur": 8282,
      "ĠbÃ¢": 8283,
      "Ġapprennent": 8284,
      "ĠPh": 8285,
      "Ġeffrayant": 8286,
      "Ġcuisin": 8287,
      "allen": 8288,
      "ĠrÃ©vÃ©ler": 8289,
      "ĠrÃ©conc": 8290,
      "Ġprincipale": 8291,
      "Ġtrouvent": 8292,
      "Ġwow": 8293,
      "ĠÃ©larg": 8294,
      "Ġinnovantes": 8295,
      "Ġvalidation": 8296,
      "Ġbattaient": 8297,
      "Ġviolence": 8298,
      "self": 8299,
      "actualitÃ©": 8300,
      "Ġobstacles": 8301,
      "Ġnourrir": 8302,
      "Au": 8303,
      "cas": 8304,
      "lie": 8305,
      "mon": 8306,
      "erai": 8307,
      "ĠvÃª": 8308,
      "andre": 8309,
      "atmosphÃ¨re": 8310,
      "Ġcommune": 8311,
      "extÃ©rieur": 8312,
      "Ġestim": 8313,
      "Ġparlez": 8314,
      "ovence": 8315,
      "Ġ*âĢľ": 8316,
      "Ġmodifications": 8317,
      "Ġimaginaire": 8318,
      "ĠCommencer": 8319,
      "Ġsculptures": 8320,
      "ĠTraitÃ©": 8321,
      "ĠpossÃ¨de": 8322,
      "apprÃ©hender": 8323,
      "ĠCombien": 8324,
      "warz": 8325,
      "II": 8326,
      "dr": 8327,
      "empl": 8328,
      "gence": 8329,
      "outes": 8330,
      "ĠgÃ©rÃ©": 8331,
      "itations": 8332,
      "agrang": 8333,
      "uste": 8334,
      "Ġexact": 8335,
      "Ġspl": 8336,
      "ĠNord": 8337,
      "ĠposÃ©": 8338,
      "ĠcoÃ»te": 8339,
      "ĠlÃ©gÃ¨rement": 8340,
      "Ġcharg": 8341,
      "Ġfonctionnent": 8342,
      "Ã©loi": 8343,
      "arrÃªter": 8344,
      "ĠinspirÃ©e": 8345,
      "Ġspectaculaire": 8346,
      "Ġpertinentes": 8347,
      "ĠÃ©ducatifs": 8348,
      "imagin": 8349,
      "Ġtalents": 8350,
      "ĠparticipÃ©": 8351,
      "edback": 8352,
      "ĠhypothÃ¨se": 8353,
      "ðŁ¤Ķ": 8354,
      "ĠvÃ©hicules": 8355,
      "schild": 8356,
      "warzschild": 8357,
      "ep": 8358,
      "uge": 8359,
      "quad": 8360,
      "ano": 8361,
      "Ġvillages": 8362,
      "ĠgÃ¨re": 8363,
      "rages": 8364,
      "ĠentiÃ¨re": 8365,
      "igu": 8366,
      "Ã®ner": 8367,
      "ĠVen": 8368,
      "version": 8369,
      "ĠlibÃ©rer": 8370,
      "Ġrire": 8371,
      "Ġfantastiques": 8372,
      "Ġcontraire": 8373,
      "Ġcherchant": 8374,
      "modÃ¨le": 8375,
      "orizons": 8376,
      "Ġfatigu": 8377,
      "ðŁĶİ": 8378,
      "Ġchampignons": 8379,
      "20": 8380,
      "gs": 8381,
      "mÃ©moire": 8382,
      "oche": 8383,
      "|^": 8384,
      "Ġdange": 8385,
      "Ġatout": 8386,
      "ĠMet": 8387,
      "chÃ©es": 8388,
      "river": 8389,
      "opin": 8390,
      "Ġdispar": 8391,
      "ador": 8392,
      "tension": 8393,
      "Ġconstitu": 8394,
      "ĠrelativitÃ©": 8395,
      "Ġvariable": 8396,
      "Ġclients": 8397,
      "Ġvoisins": 8398,
      "ĠentraÃ®nements": 8399,
      "Ġflexible": 8400,
      "ĠcollÃ¨gue": 8401,
      "ðŁĴ«": 8402,
      "Ġpoissons": 8403,
      "ĠcompÃ©tition": 8404,
      "ognition": 8405,
      "ĠtÃ©moign": 8406,
      "Ġrenouvelables": 8407,
      "Ġdormir": 8408,
      "Ġvigil": 8409,
      "Ġenjeux": 8410,
      "lin": 8411,
      "uff": 8412,
      "uns": 8413,
      "Ġdevez": 8414,
      "sip": 8415,
      "Ġchallen": 8416,
      "cident": 8417,
      "Ġsurveiller": 8418,
      "ĠVer": 8419,
      "Ġdiffusion": 8420,
      "Ġtiss": 8421,
      "Ġtravaux": 8422,
      "Ġattray": 8423,
      "Ġjoues": 8424,
      "Ġtours": 8425,
      "ĠChouette": 8426,
      "oÃ»t": 8427,
      "ĠbÃ©nÃ©fici": 8428,
      "ĠmÃ©dicaux": 8429,
      "ĠrÃªver": 8430,
      "Ġrelaxante": 8431,
      "ĠMarc": 8432,
      "aliments": 8433,
      "encourager": 8434,
      "ĠtÃ©lÃ©phone": 8435,
      "Pourquoi": 8436,
      "tÃ©roÃ¯": 8437,
      "Ġcalendrier": 8438,
      "fer": 8439,
      "Ġlet": 8440,
      "ĠextÃ©ri": 8441,
      "osÃ©": 8442,
      "ĠLÃł": 8443,
      "ĠðŁĽ": 8444,
      "Ġtitre": 8445,
      "Ġcourbure": 8446,
      "Ġdessin": 8447,
      "Ġhabit": 8448,
      "ĠdÃ©finis": 8449,
      "Ġseuil": 8450,
      "Ġimpressionnistes": 8451,
      "Ġsouffle": 8452,
      "Ġpartageons": 8453,
      "ĠWeb": 8454,
      "Ġregardes": 8455,
      "organise": 8456,
      "Ġpassent": 8457,
      "Ġrecycler": 8458,
      "Ġcandid": 8459,
      "Ġnutrition": 8460,
      "Ġsplend": 8461,
      "\\).": 8462,
      "heu": 8463,
      "ĠsÃ©d": 8464,
      "lem": 8465,
      "ource": 8466,
      "Ġfrag": 8467,
      "Ġbille": 8468,
      "ival": 8469,
      "angÃ©": 8470,
      "Ġcultiver": 8471,
      "mettent": 8472,
      "adapte": 8473,
      "ĠÃ©quilibrÃ©s": 8474,
      "Ġcordes": 8475,
      "Ġchercheurs": 8476,
      "ĠinterprÃ©tation": 8477,
      "Ġmilliers": 8478,
      "Ġtraduction": 8479,
      "Ġintrigant": 8480,
      "Ġcardiovasculaire": 8481,
      "ĠLondres": 8482,
      "ench": 8483,
      "Ġtasse": 8484,
      "ĠmagnÃ©tique": 8485,
      "intimitÃ©": 8486,
      "Ġnov": 8487,
      "ĠElectron": 8488,
      "tugal": 8489,
      "Ġexprim": 8490,
      "Ġcomposi": 8491,
      "ocole": 8492,
      "Ġdouble": 8493,
      "Ġflou": 8494,
      "Ġcodes": 8495,
      "Ġclasser": 8496,
      "asso": 8497,
      "assister": 8498,
      "Ġsourire": 8499,
      "ĠAlpes": 8500,
      "play": 8501,
      "Ġbattre": 8502,
      "dimension": 8503,
      "ĠInstagram": 8504,
      "Ġexcessive": 8505,
      "yl": 8506,
      "âĿ": 8507,
      "Ġporter": 8508,
      "ĠmÃ©rit": 8509,
      "orde": 8510,
      "alisme": 8511,
      "ĠconÃ§u": 8512,
      "parents": 8513,
      "Ġstabil": 8514,
      "Ġcollection": 8515,
      "Ġcorriger": 8516,
      "aissant": 8517,
      "Ġfavorites": 8518,
      "ðŁĮĪ": 8519,
      "Ġoriginales": 8520,
      "amÃ¨tre": 8521,
      "ĠfraÃ®ches": 8522,
      "Ġintuitive": 8523,
      "Ġamicale": 8524,
      "Ġconvivial": 8525,
      "Ġpatterns": 8526,
      "ĠdÃ©stabil": 8527,
      "ĠPortugal": 8528,
      "37": 8529,
      "Con": 8530,
      "Einstein": 8531,
      "code": 8532,
      "fonction": 8533,
      "Ġdate": 8534,
      "Ġritu": 8535,
      "Ġfille": 8536,
      "Ġrelier": 8537,
      "onnent": 8538,
      "Ġchaotique": 8539,
      "Ġcomprennent": 8540,
      "tesse": 8541,
      "Ġaidant": 8542,
      "Ġaimeriez": 8543,
      "Ġimpressionnante": 8544,
      "ĠengendrÃ©": 8545,
      "Ġpotentiels": 8546,
      "Ġadaptation": 8547,
      "Ġseconde": 8548,
      "ĠappelÃ©e": 8549,
      "Ġangle": 8550,
      "ĠengagÃ©e": 8551,
      "ĠconÃ§us": 8552,
      "gleterre": 8553,
      "Ġfrustrant": 8554,
      "EP": 8555,
      "dit": 8556,
      "type": 8557,
      "vons": 8558,
      "Ġfur": 8559,
      "Ġgale": 8560,
      "Ġrelever": 8561,
      "ĠrÃ©sid": 8562,
      "rid": 8563,
      "Ãªche": 8564,
      "ata": 8565,
      "Ġarchite": 8566,
      "essai": 8567,
      "ĠconcentrÃ©": 8568,
      "Ġvagues": 8569,
      "oriel": 8570,
      "ĠProvence": 8571,
      "efforts": 8572,
      "âĢĿ,": 8573,
      "Ġnotables": 8574,
      "fractal": 8575,
      "Ġbleu": 8576,
      "OpenFOAM": 8577,
      "ĠÏĨ": 8578,
      "ĠSchwarzschild": 8579,
      "attendais": 8580,
      "Ġpoignant": 8581,
      "(-": 8582,
      "16": 8583,
      "enre": 8584,
      "Ġchou": 8585,
      "ĠPDF": 8586,
      "ĠVers": 8587,
      "ĠFibonacci": 8588,
      "exercices": 8589,
      "ĠcorrÃ©": 8590,
      "Ġtypiques": 8591,
      "ĠgÃ©nÃ©ralis": 8592,
      "Ġorganise": 8593,
      "ĠðŁĶ¬": 8594,
      "ĠðŁĶģ": 8595,
      "ĠdÃ©clar": 8596,
      "Ġadores": 8597,
      "Ġimpatiente": 8598,
      "ĠÃ©mergente": 8599,
      "ĠproductivitÃ©": 8600,
      "Ġconvaincue": 8601,
      "horreur": 8602,
      "Tr": 8603,
      "oÃ®": 8604,
      "sance": 8605,
      "Ġferais": 8606,
      "tuellement": 8607,
      "Ġyou": 8608,
      "Ġcompliqu": 8609,
      "idation": 8610,
      "Ġsonore": 8611,
      "Ġtranspar": 8612,
      "Ã©cologie": 8613,
      "Ġjouaient": 8614,
      "Ġrespectant": 8615,
      "endroit": 8616,
      "Ġlocalement": 8617,
      "Ġvariations": 8618,
      "Ġdynamisme": 8619,
      "envis": 8620,
      "Ġesprits": 8621,
      "ĠadaptÃ©e": 8622,
      "ðŁĮ¸": 8623,
      "Ġanalyses": 8624,
      "ĠUtilise": 8625,
      "Ġmasses": 8626,
      "Ġentourent": 8627,
      "enseigner": 8628,
      "Espagne": 8629,
      "acheter": 8630,
      "fli": 8631,
      "quÃ©s": 8632,
      "read": 8633,
      "Ġnormes": 8634,
      "Ġgam": 8635,
      "ĠMag": 8636,
      "Ġparlions": 8637,
      "ĠdÃ©range": 8638,
      "encent": 8639,
      "ĠDeux": 8640,
      "ettes": 8641,
      "ĠRes": 8642,
      "Ġ100": 8643,
      "agnol": 8644,
      "ĠÃ©quip": 8645,
      "Ġperman": 8646,
      "ĠrÃ©alitÃ©s": 8647,
      "ĠenvisagÃ©": 8648,
      "Ġimmun": 8649,
      "systÃ¨me": 8650,
      "inspire": 8651,
      "ĠdÃ©tecter": 8652,
      "ĠbouleversÃ©": 8653,
      "Ġultra": 8654,
      "ĠÃ©ventu": 8655,
      "Ġnerveux": 8656,
      "fur": 8657,
      "vres": 8658,
      "entation": 8659,
      "lette": 8660,
      "Ġhorizons": 8661,
      "ĠprÃ©fÃ¨rent": 8662,
      "Ġdonnes": 8663,
      "Ã©panou": 8664,
      "Ġmagiques": 8665,
      "Ġconstantes": 8666,
      "ĠpassÃ©e": 8667,
      "Ġclairs": 8668,
      "ĠextrÃªmes": 8669,
      "Ġsainement": 8670,
      "Ġhyper": 8671,
      "ĠâĶĤ": 8672,
      "Ġleadership": 8673,
      "\"*": 8674,
      "Histoire": 8675,
      "Par": 8676,
      "Ġlance": 8677,
      "Ġtense": 8678,
      "ĠAut": 8679,
      "Ġ\\).": 8680,
      "Ġperceptions": 8681,
      "Ġtransforme": 8682,
      "Ġtitres": 8683,
      "eusement": 8684,
      "ĠDepuis": 8685,
      "trice": 8686,
      "Ġjustement": 8687,
      "Ġclimatiques": 8688,
      "ĠprÃ©sents": 8689,
      "Ġmerveilleuses": 8690,
      "rastructures": 8691,
      "Ġregardant": 8692,
      "Ġinitial": 8693,
      "Ġcauser": 8694,
      "Ġsilen": 8695,
      "Ġconduire": 8696,
      "Ġgentilles": 8697,
      "ĠÃ©levÃ©e": 8698,
      "ĠpÃ¢ti": 8699,
      "Ġprototype": 8700,
      "Ġurgences": 8701,
      "ĠrÃ©confortant": 8702,
      "ĠleÃ§ons": 8703,
      "Ġconsulter": 8704,
      "ðŁĵļ": 8705,
      "ĠrÃ©utilisables": 8706,
      "API": 8707,
      "Allemagne": 8708,
      "ED": 8709,
      "Py": 8710,
      "gi": 8711,
      "table": 8712,
      "Ġdram": 8713,
      "Ġtac": 8714,
      "orti": 8715,
      "Ġpourtant": 8716,
      "Ġok": 8717,
      "ĠBr": 8718,
      "Ġdilem": 8719,
      "Ġmobil": 8720,
      "Ġexplication": 8721,
      "ĠVÃ©ri": 8722,
      "hÃ©tique": 8723,
      "ĠForm": 8724,
      "Ġ12": 8725,
      "Ġorch": 8726,
      "ĠdÃ©montre": 8727,
      "Ġpotentielles": 8728,
      "Ġfamiliar": 8729,
      "Ġinteractives": 8730,
      "Ġcivil": 8731,
      "Ġouverts": 8732,
      "ypothÃ¨se": 8733,
      "ĠoubliÃ©": 8734,
      "Empire": 8735,
      "ĠPicasso": 8736,
      "âĿ¤ï¸ı": 8737,
      "ms": 8738,
      "ouvelle": 8739,
      "Ġexpression": 8740,
      "ĠQuoi": 8741,
      "Ġtrace": 8742,
      "ĠAjoute": 8743,
      "ĠrÃ©gularitÃ©": 8744,
      "Ġsolo": 8745,
      "Ġsouci": 8746,
      "Ġferme": 8747,
      "Ġinfluent": 8748,
      "Ġmodulaire": 8749,
      "ĠsÃ©lection": 8750,
      "îĪģ": 8751,
      "ĠYou": 8752,
      "Ġobjet": 8753,
      "Ġvarie": 8754,
      "Ġateliers": 8755,
      "imagination": 8756,
      "Ġblog": 8757,
      "Ġattire": 8758,
      "Ġjardins": 8759,
      "origin": 8760,
      "ĠÃ©voquer": 8761,
      "ĠNetfli": 8762,
      "Ġappareils": 8763,
      "ĠPersonnellement": 8764,
      "ĠNetflix": 8765,
      "gr": 8766,
      "ia": 8767,
      "position": 8768,
      "äº": 8769,
      "Ļï¸ı": 8770,
      "Ġsang": 8771,
      "Ġmail": 8772,
      "ĠmolÃ©": 8773,
      "Ġjuri": 8774,
      "mets": 8775,
      "ĠpersÃ©v": 8776,
      "ĠamÃ©ric": 8777,
      "oluer": 8778,
      "ĠFace": 8779,
      "Ġplairait": 8780,
      "Ġpropagation": 8781,
      "Ġrestric": 8782,
      "ĠImaginez": 8783,
      "ĠdÃ©pe": 8784,
      "Ġcirculation": 8785,
      "Ġenfance": 8786,
      "ĠadaptÃ©es": 8787,
      "Ġinitiale": 8788,
      "mission": 8789,
      "Ġmanifeste": 8790,
      "Ġdimensionnelle": 8791,
      "Ġmajestueux": 8792,
      "ĠvÃªtements": 8793,
      "br": 8794,
      "dra": 8795,
      "oublier": 8796,
      "ĠCal": 8797,
      "ĠClaire": 8798,
      "ĠconcrÃ¨te": 8799,
      "Ġtrains": 8800,
      "Ġprofite": 8801,
      "apes": 8802,
      "essentiel": 8803,
      "Ġcommande": 8804,
      "Ġcroire": 8805,
      "ĠconsacrÃ©": 8806,
      "Ġsuperbes": 8807,
      "marine": 8808,
      "ĠÃ©coutÃ©": 8809,
      "Ġmontrant": 8810,
      "Ġlongs": 8811,
      "avantages": 8812,
      "Ġpartageant": 8813,
      "Ġcognitives": 8814,
      "ĠcinÃ©m": 8815,
      "Ġcouches": 8816,
      "Ġnutriments": 8817,
      "Ġcroyances": 8818,
      "Ġinfinie": 8819,
      "ĠcoÃ»t": 8820,
      "Ġinjustices": 8821,
      "Ad": 8822,
      "bon": 8823,
      "js": 8824,
      "Ġlyc": 8825,
      "incip": 8826,
      "Ġrendant": 8827,
      "ĠreÃ§u": 8828,
      "tuels": 8829,
      "Ġexprime": 8830,
      "ĠBach": 8831,
      "Ġmotifs": 8832,
      "ocat": 8833,
      "Ġ\\)**": 8834,
      "ĠÃ©vitant": 8835,
      "ĠFr": 8836,
      "erveilles": 8837,
      "Ġcoq": 8838,
      "ĠcohÃ©sion": 8839,
      "ĠÃ©lectroniques": 8840,
      "ĠsimplifiÃ©e": 8841,
      "Ġsouligner": 8842,
      "Ġescap": 8843,
      "ĠarrivÃ©": 8844,
      "ĠdÃ©passÃ©": 8845,
      "Ġprimor": 8846,
      "Ġtouristiques": 8847,
      ".îĪĦîĪĨ": 8848,
      "ĠmÃ©lodie": 8849,
      "GD": 8850,
      "jac": 8851,
      "ĠBl": 8852,
      "ĠBretagne": 8853,
      "amuser": 8854,
      "ĠspÃ©": 8855,
      "Ġcrit": 8856,
      "existe": 8857,
      "Ġvoitures": 8858,
      "ĠbrÃ»": 8859,
      "ĠÃ©chelles": 8860,
      "Ġinspirants": 8861,
      "Ġ195": 8862,
      "ĠintensitÃ©": 8863,
      "Ġenrichissants": 8864,
      "Ġdiscute": 8865,
      "Ġnoms": 8866,
      "ĠThaÃ¯l": 8867,
      "ĠisolÃ©": 8868,
      "ichage": 8869,
      "ĠamÃ©liorations": 8870,
      "ĠengagÃ©s": 8871,
      "incertitude": 8872,
      "doc": 8873,
      "gar": 8874,
      "hbar": 8875,
      "icile": 8876,
      "analyser": 8877,
      "Ġmerveilles": 8878,
      "invention": 8879,
      "Ġvolume": 8880,
      "chn": 8881,
      "Ġcomptes": 8882,
      "Ġfab": 8883,
      "Ã®le": 8884,
      "ĠcrÃ©ent": 8885,
      "Ġdoutes": 8886,
      "Ġ16": 8887,
      "ĠconnaÃ®t": 8888,
      "ĠGestion": 8889,
      "impliquer": 8890,
      "ĠrÃ©vÃ¨le": 8891,
      "Ġformations": 8892,
      "observation": 8893,
      "Ġboissons": 8894,
      "Ġconstate": 8895,
      "gestion": 8896,
      "ĠðŁ§¬": 8897,
      "ĠnÃ©glige": 8898,
      "ĠmÃ©decin": 8899,
      "ĠrafraÃ®chissante": 8900,
      "Ġcoutumes": 8901,
      "ĠÃ¢me": 8902,
      "identifier": 8903,
      "ĠprivilÃ©gier": 8904,
      "Ġterrible": 8905,
      "introd": 8906,
      "ĠVenise": 8907,
      "44": 8908,
      "SON": 8909,
      "{|": 8910,
      "rel": 8911,
      "Ġdedans": 8912,
      "orch": 8913,
      "auc": 8914,
      "Ġrempli": 8915,
      "ousness": 8916,
      "ĠOk": 8917,
      "ĠOr": 8918,
      "Ġ**\\": 8919,
      "apper": 8920,
      "Ġmonu": 8921,
      "Åĵurs": 8922,
      "Ġpizz": 8923,
      "ĠcompÃ©tence": 8924,
[...]
